[PAD]
[UNK]
[CLS]
[SEP]
[MASK]
##<s>
k
##se
##st
t
##le
,
##li
m
v
.
##ja
o
p
e
##in
s
##ma
##id
a
##ta
##is
##va
##da
##te
n
##ga
##oo
##ud
##la
##us
##ks
ja
##ra
##ri
se
ka
on
##ne
te
##me
##ik
##al
ku
##na
##mi
##re
##si
ko
j
##gi
##aa
##nd
##use
##he
##sta
##lt
va
##õi
##uu
##es
##el
h
##il
##ti
##ni
ü
l
##ge
et
##ku
##tu
##gu
##ste
ta
##ka
##ii
ei
##ha
tu
vä
##mise
##nud
või
##ko
##est
##sa
##it
##ul
ma
"
##ee
kui
sel
##ida
##ine
##vad
##tud
li
##ro
##de
pe
##nda
1
pa
##su
la
##lu
##öö
##ju
##är
E
ju
ole
me
si
sa
saa
ra
##ing
##nna
see
##ki
##ad
##ke
##ide
i
##lise
##ba
tä
##vi
##ää
:
2
##ru
oma
##ini
##di
selle
##lik
oli
##ht
##tsi
po
pea
##mu
##or
T
(
##ar
##pe
##ve
ning
)
siis
nä
kõ
aa
kü
##tse
suu
mõ
S
##sti
K
##stu
##bi
to
##mine
mis
##esti
##üü
##äe
##er
aga
ne
võ
##kse
ar
õ
M
##to
##liku
P
##nu
##ts
A
ve
kes
su
al
min
##du
le
##pa
lä
r
na
##ära
##hi
mu
koo
kor
##mis
mil
tule
töö
nii
##mist
L
sõ
re
##sed
tõ
üle
kä
aasta
##iku
##mas
##ir
põ
pu
##ndi
f
?
##ika
##tuse
ri
##eri
V
##nt
ha
##00
##hu
R
##tus
seda
##mb
##val
##nne
u
he
väl
kas
##takse
tee
-
##ie
jä
##line
pal
##idu
##ooni
mida
Eesti
##selt
aja
##tas
loo
ini
##pi
##tle
ol
esi
lõ
##ime
pro
välja
!
kin
tege
##tes
##je
##nde
##tab
val
inime
##ina
##res
maa
##vu
pole
##maa
kasu
##ike
##alt
##tada
##õu
mit
H
soo
ise
##lis
koh
poo
##on
tea
##kt
##ol
uu
##ist
in
##ude
3
##konna
osa
vii
##pu
##kku
##taja
##des
iga
..
ke
ette
mille
##as
sü
ühe
J
I
vahe
kõik
##miseks
taga
il
üks
##inud
võima
B
##võ
jär
au
##roo
veel
##lus
##rd
lu
mä
kir
juu
ro
##tte
väga
##isa
##õige
##päe
kel
##mus
kus
kül
kuid
##gus
##valt
##ndus
tei
##01
N
...
vastu
##list
##sin
suure
juba
võib
kee
##likult
##used
korra
##oon
##eg
##inu
kol
##hk
##sid
##ndu
##jad
##tel
19
muu
tema
##kti
ho
vi
##stus
##an
,"
mul
lisa
saab
##uses
mitte
täna
##inna
##ter
##dus
kon
##oni
##ingu
ära
eest
jää
vähe
##las
nagu
##en
b
##mad
##alli
##liselt
näi
too
vaa
esime
as
##lda
##kka
vali
##isu
##lli
##iv
koha
##ärast
##ia
–
##nni
rii
mee
##pp
vaid
ena
rah
##htu
4
päe
ala
kõr
5
##misel
C
toi
##raa
oleks
põh
##itse
##tele
hoo
minu
##ng
meie
##tee
##isi
pi
nende
kau
##üüd
##matu
tuleb
##ikka
sest
vaja
vasta
pra
so
eel
palju
##hti
##tatud
##tt
##tava
kogu
ava
##stada
##sel
lii
kuna
##hke
##stal
ütle
kuida
##maks
##rja
eri
##tsiooni
elu
tal
teha
##ngu
enda
lähe
##nn
##eed
##isse
nime
ikka
kesk
läbi
suur
##po
G
D
ter
##vus
kokku
##mini
##idi
##sse
##tsu
olu
peale
d
hea
##ld
kind
hu
##mm
##teks
##stele
nad
enam
hä
##hul
U
##mata
pii
##aal
ela
pärast
##kas
aastal
need
liht
rää
hakka
joo
##hte
kõige
##os
ees
lap
##ksa
and
mär
ki
##usega
nüüd
##nik
käi
ajal
kii
olla
##udu
vee
##mme
##les
/
##malt
kuu
midagi
##kk
).
arva
ainu
O
##ttu
200
jõ
kuidas
auto
koos
##be
kuul
mi
Talli
raha
kohta
##test
##vali
##tavad
seal
##kor
er
##statud
##tsioon
sama
küll
##vat
kelle
maja
kaa
F
##elda
##tta
olnud
##lo
##ilma
noo
taha
olen
##uroo
ä
tagasi
linna
rohke
##ides
##ene
##stab
tead
'
siin
küsi
##vahe
##mo
##tust
neid
##egu
viima
##at
##uroopa
##por
##ses
an
##ega
##usel
##rit
asu
##mat
##lised
peaks
pla
ehk
rohkem
kirju
kinni
enne
tähe
6
õi
201
erine
kahe
eda
de
aru
##ind
##tsa
nõu
##aar
##üh
ainult
##uuri
teh
##stest
##ole
##ppe
."
Tallinna
are
sellest
kasuta
oo
##ho
era
just
pü
sai
##mp
##0.
näiteks
##päeva
Euroopa
lo
##või
##ris
peab
##stuse
;
##ile
##rel
riigi
mõne
järg
##ngi
##em
soovi
##rs
##et
##lle
kooli
poli
##kus
##seks
##dala
pare
##ingi
##luse
poole
##tega
raa
Eest
olid
##vä
##vas
us
asja
##koo
eks
##poo
mingi
##iko
##maal
##tav
vaba
##kond
is
kindla
sead
##ril
liik
tar
para
ettevõ
saada
##tis
##usa
toimu
Ma
##guse
uue
nõ
vana
##joni
##lla
Ka
es
no
pä
##kord
ee
g
##salt
huvi
##jal
ni
##oks
##kirja
toe
##bu
maks
kaasa
##rist
Tar
7
##tama
##nnu
##sest
##ble
hul
ti
##muse
0
kaks
##tanud
ega
jooks
##mär
##stas
##gia
##rid
##nis
ütles
##muti
##kü
##vate
##rii
üld
##rde
hinna
##vis
st
tü
##misega
##alu
olema
har
Sa
praegu
##dud
##mber
##stega
ras
##met
ö
võimalik
##.2
par
samuti
##jate
alla
müü
),
##set
##nts
##nti
kuni
##aasta
pil
kodu
nu
päeva
##gas
sisse
seo
edasi
aega
##lased
##ndada
##rooni
##liste
meel
mitme
##gust
##sele
8
poolt
tuli
lihtsalt
%
mees
##lane
pere
W
riik
##rite
##misest
##nes
##nduse
##umi
##uro
mõi
kar
di
##fo
isegi
Ra
##gra
##nge
15
jõu
##lust
abi
jät
korda
pär
##seme
##adi
##vaid
saanud
mo
kah
##laste
##neb
jaoks
sõna
kiire
##ster
kirja
##ndid
võr
anna
õnne
üh
##loo
##pro
##seid
##inda
lisaks
##mal
##ree
kuulu
sii
väike
aastat
põhi
Eestis
##nul
proble
muidu
##ndab
leid
10
##ber
siiski
võiks
9
##uur
kuju
moo
##kis
".
sõnul
all
kohtu
ots
möö
kõi
os
ene
##äära
##aas
pan
aeg
##lnud
##äi
lõpu
lahe
##000
mina
##gist
uus
jõud
##maja
õpe
tava
##no
juurde
miks
##likud
##likku
vahel
##konda
##eeri
tasu
##päeval
hal
##rga
kasva
Vene
mulle
hai
##1.
krooni
eriti
samas
pida
maailma
##hta
hil
ilma
meil
12
kohe
##kuse
otsu
##kogu
##ns
##im
ilm
##ria
##laa
fil
sõi
pres
teki
##lid
ai
järgi
##mma
euro
Mar
##mes
palj
end
##meti
##kel
##ktiiv
keegi
nädala
luge
protse
täi
puudu
18
tra
riig
noor
##must
##sime
##oloo
##vuse
kindlasti
##korra
täp
tõe
juht
##vale
sellise
puhul
küla
##dega
##tamise
##like
Re
kaitse
olemas
##kes
##steeri
##tiiv
selles
het
teine
nai
alu
##mä
lae
##gem
##ust
##ala
kun
ele
kahju
tuu
eesmär
##tan
arvu
Li
##vik
##idega
tegu
##del
tur
jooksul
##ooli
##un
pik
##töö
pool
##ntro
##.0
##udi
##tik
inimesed
##tor
kell
hästi
osale
##mmu
kuigi
tuge
muutu
Tartu
##idele
##ali
sul
##tsiaal
selline
õige
luba
c
##stel
korralda
mõju
rõ
eba
üles
##mne
##mmi
sobi
##tori
laste
##ss
rahvus
##.201
vara
tunne
selleks
kli
ak
##dab
alati
ker
lõpe
tegelikult
##tõ
##ona
arve
##era
raske
##ani
ab
läks
]
##itsi
[
miljoni
süü
võt
sise
##tsus
tut
##iga
##oodi
##um
päris
##itud
Pa
aval
##ot
kõigi
##niku
##mõ
pee
ehi
199
##stöö
pää
##idest
sil
mõtle
rahva
##dele
##rt
tele
##emi
##tja
võtta
kao
##for
##nema
kult
##lisi
##ldi
välis
lapse
##hku
võist
esin
##rem
##pära
teen
proje
määra
maha
teada
##lg
raamatu
##kki
",
täie
räägi
##vo
##tamine
##pis
16
kõrge
##koha
tunni
##rim
lau
##olla
##itus
##vaa
sur
13
14
söö
##sis
umb
##elja
##usika
##ab
pöö
20
jääb
##misele
üldse
juha
fo
vähemalt
ema
vaada
##med
##ssi
##aja
Ü
##llu
Le
##fi
tre
seega
sta
kunagi
Soo
Ta
##tuste
asi
##its
mine
##konnas
ümber
mehe
##osa
korral
##ur
##pingu
##ndis
kolm
selge
täis
##nta
##mee
majandus
õpi
17
juures
hää
nelja
##tatakse
##irma
meele
valmi
##jus
hilje
##ruu
alg
sellega
##vel
##ppi
väär
paku
haka
##tsuse
##ntsi
##nsi
vär
##lase
teise
näe
muidugi
kolme
endale
##udes
##stavad
Ko
eesti
juhul
##mmik
##tused
##nte
liiga
üri
##eritud
õhtu
do
##gis
##bra
teda
õigus
##jär
kontro
preside
##nike
##nika
väik
viis
tundu
öö
piir
kolma
spor
hü
amet
loe
otse
ühis
##misi
##rus
sellele
läheb
saaks
##ttes
w
##nnast
##gid
sinu
lõp
võimalus
koge
talle
umbes
##tusi
minna
soov
La
tegi
vaata
vene
##kad
näha
ime
##nenud
panna
lü
koostöö
##põ
täht
öelda
paa
1.
##jää
##pane
oleme
politse
tehtud
##asi
##pte
puu
käsi
rahu
alga
teist
üht
õppe
elekt
alles
##maid
##tasid
pakku
##miste
##ver
##olu
##stanud
uuri
seisu
##ulu
mind
mängu
kasutada
info
klas
ase
##duse
##pool
##-1
##and
##lehe
##aani
##ps
##tati
mäng
hiljem
##hva
teeb
inimene
##oone
pun
Va
##ms
juhtu
silma
##mised
inter
##lar
sinna
meeldi
##rele
##tsia
##mba
##co
##5.
jäi
komme
kohu
proo
000
esimene
mängi
##ressi
teie
seotud
kiri
##iu
Usa
artik
##hv
orga
##esse
##fe
tegemist
valmis
##tule
terve
jul
tööd
sisu
##stama
##nä
koht
##taks
##tri
tund
sotsiaal
##pea
11
natu
##musi
##rü
luu
##inge
##meet
##eva
andme
And
jälle
##stamine
annab
##väär
##tar
liiku
##mees
##üste
##par
seni
ilmselt
##una
##stamise
suuna
##iti
kultuuri
##kõ
##nus
var
##ce
varem
##pärast
##ltu
##vara
##linna
##dal
alates
põhja
##sete
##ndatud
tähele
tutvu
##male
peal
selgi
:)
metsa
##erida
polnud
teiste
õpetaja
mõni
muud
##itika
Venemaa
toime
foto
ennast
piisa
oska
##isid
paar
lennu
konku
ga
kuhu
##bad
lõpuks
esimese
##jä
jne
##useks
##riik
##ilja
probleem
saavad
##alda
mõtte
jaga
##dest
oled
##4.
##sus
##jale
jaa
##2.
##vust
##ll
##ood
maail
##vest
##rna
##sna
edu
ost
##viku
kulu
##nga
ravi
muusika
hoopis
jah
##ch
Pär
##sead
##nk
tingi
inimese
##3.
sõja
arma
##rgi
##ed
keha
##6.
esinda
toimub
##ndust
##statakse
natuke
##stust
ap
##vere
tervi
hetkel
##elu
kanna
mõned
kerge
isa
##mused
tõttu
töötaja
##mbri
riigiko
head
tegele
inimeste
ruu
maksu
##last
teo
##pida
##usid
##7.
##üm
##ut
paljud
##semel
võe
##jaid
##hus
tekk
##poli
igal
toidu
##gude
leia
isik
käes
neile
##rdi
saavu
##rgia
neist
##8.
uur
##saa
täiesti
kava
##tasin
##lasi
##9.
##tnud
istu
##dust
kontrolli
##usest
##miselt
##ääne
##meeri
mõle
rake
tõesti
üsna
neil
##ministeeri
kord
arengu
##mehe
##lit
##minister
tõsi
taas
tuleks
##red
##mid
äri
rahvusvahe
taht
##dunud
avalda
klie
##mises
##likooli
ligi
Pe
teema
põhju
sünd
vor
##pal
mõte
##tult
süda
antud
30
täit
Ro
vist
võivad
##vast
##ise
lahti
##lgi
##üri
##oli
##net
##reid
pari
##nõu
teinud
##pera
##tamiseks
mitu
##riigi
Jaa
Roo
eile
anda
##sust
mööda
##idus
##pidi
##tuses
sis
##sõ
vähem
##poole
kaht
keda
valla
##jon
##tist
millest
##oleku
##kra
Ar
hakkab
##ksi
ge
##ktor
kvali
ühte
saja
##idel
ongi
##mate
##tamist
teisi
##gin
##hes
pigem
miljonit
sõltu
##ili
süste
##iri
##panu
püha
##korda
kutsu
loomu
##mete
##ndas
oluline
otsa
isiku
sõidu
hinda
otsi
inimesi
tohi
päev
endi
##rsi
tänu
##mala
mõõ
Soome
Põ
##too
tegutse
##ksu
##ndeid
mini
veidi
ajakirja
esine
kõne
kätte
sellist
nor
##ck
25
sünni
##ment
##usele
He
mäle
regist
##juu
jäänud
rääkis
To
##likke
##var
##ilo
puha
##kida
##gud
eh
##ksid
Ku
pane
vale
##peal
##onaal
##inga
tähendab
juhti
sage
##hal
pai
Na
##aeg
leida
##kaa
##reeri
##ttis
##stati
sega
üli
püü
suuda
ettevõtte
##usi
tasa
##mast
##ret
keele
##htes
##kst
kauba
##tõttu
kõrval
lugu
progra
##pla
##võist
parem
kaudu
sõbra
##ditsi
##staja
##bli
anal
seetõttu
##kuu
vai
Liidu
väikse
##go
##tusel
##jaa
seis
##dia
##ikud
ikkagi
käe
kaas
spe
hõ
Po
tõus
Te
meile
usu
ooda
##inaa
julge
järel
##ca
ajaloo
raja
turu
##ela
heli
##htud
##tne
inimest
ba
100
suhte
suhtes
Se
rõõ
##muste
##rika
ühi
##moodi
kur
Ja
##liseks
sealt
Saksa
peavad
tegevus
Val
võrd
koda
##riga
kal
##ktoo
##kon
mõist
moodu
ent
##üüsi
tundub
teised
arv
##gel
mingit
täpselt
loodus
päeval
osas
##hja
*
taa
2.
olin
##rek
posi
küsimus
##pii
##ras
pike
##teid
id
##kust
##ima
keskkonna
50
toot
hi
##tame
eurot
filmi
##rin
tähelepanu
hoia
##gune
hooli
##oloogia
##rk
fa
suurem
käis
##päev
viga
##juht
mõel
##pil
##,5
septe
##kaitse
##stades
##vii
rahul
är
##meid
##ua
##tades
ütleb
##nisa
hommik
vajad
kala
rü
pide
##ool
saad
##kte
vald
millega
ru
##vaks
##nikud
##kraa
ide
ringi
sees
##likuks
projekti
##per
##tit
samal
##lge
##misjoni
firma
ula
vaadata
##stik
öel
Mi
pilt
veeb
suht
##mendi
eesmärk
süüdi
##rdu
Tallinnas
sarna
tii
inve
kvalitee
##dru
kodus
järele
##bo
##tü
Jo
kontse
##sk
##so
Lä
maailmas
##kke
##mik
jätku
##terja
roo
telli
tun
keeru
protsenti
##bri
##vee
võimalda
##mia
lange
lihtsa
kri
##ser
tööle
läinud
tao
sä
##au
##lja
kuula
!"
##enä
juhi
maksa
säi
##mäe
osta
##kooli
tegema
hääle
oktoo
jaanu
tulnud
sala
lapsed
siia
viimase
harju
mü
##oloogi
kirj
##luste
##-2
##jest
##hinna
alguses
säili
mere
kevad
sain
kolmanda
võõ
##ast
seaduse
keel
plane
##rile
##stiku
laie
##kul
riigikogu
õpp
peaa
kohal
##stamiseks
##tise
enese
##tä
kuidagi
tor
põle
politsei
osu
tarbi
vastavalt
üldi
##tur
##lal
uut
selt
##tsin
hir
ettevõt
meist
kaar
bus
jumala
õhu
kümne
maga
valitsus
##laar
##matult
##ig
tüü
muuda
rea
##jas
tõenä
##ivi
Too
##jõ
##ari
##ikese
kolle
tore
##nist
lõpp
El
võime
Ju
##guste
nimi
##lubi
##pra
##usaa
ing
näit
põllu
asjad
##nal
ettevõte
hakkas
lepingu
##dis
lahku
mure
##teri
lehe
piira
praeg
tahaks
kat
meid
##minist
haa
kohaselt
inim
maitse
3.
laps
kehti
##bje
##ikas
##oori
jala
22
pealt
võrrel
meenu
##kind
##min
doku
##suse
ettepane
lei
asemel
##stunud
##jat
##rge
Vi
laul
olevat
väli
jätka
tavaliselt
kohale
viie
##lises
eesmärgi
naine
ülesa
:/
nove
Ne
##tub
kaalu
##tti
aitab
vih
##ikaa
##pordi
Pärnu
##väe
rä
Je
turva
detse
##idata
##stru
asju
##rju
ilus
##järel
ameti
##noo
katse
Me
##usse
##koht
said
suuri
vane
reisi
://
Lo
vanema
ilmu
kauge
##ndamine
ülla
põhimõ
tihti
##lv
hoone
kom
haige
kõiki
##stamist
õhtul
ww
telef
järje
##likkuse
punkti
eelk
##iss
##alti
hinnangu
www
hakata
....
liha
##mbril
valge
võrreldes
##kee
noorte
##ndil
looma
##raha
kiiresti
##meel
##tusega
valitsuse
pildi
##liik
##tsid
plaan
omavali
##jaks
elus
21
kae
puna
aktiiv
Co
põhj
liige
##pun
##lused
##do
##did
##tege
Z
+
sellel
hoida
ain
##maksu
sada
käib
piiri
president
lisas
##ges
toimus
tulla
kuus
liigu
vide
leidis
aastast
##kui
uuesti
##klaa
vaik
##liga
##oma
oda
##vid
löö
andis
Lu
##nevad
Ha
##ppa
naa
fina
kahjuks
##pia
külla
keske
##tusele
##ndamise
seejärel
sugu
##äri
olukorra
kasutaja
pidi
##eringu
reaal
kiriku
##kree
sõl
küü
palga
##sto
müügi
ühes
suhe
ring
eelar
energia
veebru
kunst
##useid
räägib
##seis
erineva
neli
##heda
##kasva
##juures
##ted
loomulikult
paremini
käitu
##pää
##võt
Y
panga
poliiti
hommikul
Lääne
##aastane
kilo
suurt
paari
määr
oht
süga
peaaegu
As
ühel
##eli
nõud
rääkida
##hvi
hakkama
##kla
Mart
kommenta
piisavalt
tüdru
konkure
ps
40
Har
##tesse
##kuju
htt
jõudnud
km
ää
abil
tulevik
##ministeeriumi
kõigile
##ntse
teatas
Kal
##tuks
##jatele
##kä
koju
tervise
alusel
võttis
viimane
eelkõige
23
##stasid
mak
prof
madala
24
igasu
##ktsioon
koera
liikme
käigus
##msa
kirjutas
tuha
##puu
elektri
mõista
##tal
##rda
tänavu
kunsti
viia
voo
kust
uusi
suve
arst
august
##idab
uni
##aare
?"
eraldi
##tra
interne
toode
teeni
##kkus
##iili
vae
##likus
milles
##graa
##gru
gru
##pee
pidu
##tavalt
arvan
reklaa
kõike
sulle
värs
võtab
##iina
tervis
regu
tugev
##kümne
-,
asub
lihtne
tahab
kehte
alguse
##hoo
##ndit
##sika
tasuta
##eru
##kohta
kellele
##tavate
##beri
usku
##tma
haig
lugeda
käesole
muuta
sageli
##kau
##firma
alko
talu
##rilli
Kes
kandid
tuua
teadus
jal
##kesk
pääse
õppi
tundi
##pti
##masti
##ndamiseks
##nduste
##palli
päri
ser
kõrg
juhataja
##eme
##udega
kindel
##.2012
siit
##kiri
kari
lõpus
lõi
klassi
##tid
##biil
4.
hind
kla
##iit
äär
hoid
teel
Võ
kra
teed
##misjon
organisa
nimelt
südame
minema
##lisest
##aadi
reeg
##tali
##kud
arusaa
##meerika
##..
positiiv
##che
toimi
püsi
toimunud
aastatel
raud
naiste
Al
paiga
##kalt
kirjutab
Hel
##bis
198
##tavat
nn
kaup
lai
sele
##lisel
##ping
##üsteemi
##one
Mu
lüh
kaua
esimest
Su
##ag
##ktsiooni
##tajad
aju
valitse
##raal
##käi
http
nõukogu
Kri
kindlu
##gul
võrra
##tselt
##kut
värvi
##ngus
##lusi
##ette
Rootsi
võit
tõenäo
##stub
##vasta
##aania
van
looda
kalli
kana
voli
arvates
sal
##hn
##kil
leiab
ree
saate
Lee
##kste
In
lõuna
kirjelda
näitab
##vade
##ktuuri
##kaalu
presidendi
##tavasti
lausa
teatud
erinevaid
##keel
=
ris
##võrd
pidevalt
Õ
##ino
##nev
hulgas
##ruse
saan
##ord
juhatuse
seas
##ikute
##taali
saade
väljas
sea
taime
##hoid
##bus
aine
##riks
tera
##inaal
mõttes
arvuti
##stitu
Ri
kellel
##ntide
kasvu
ede
komp
##ran
##mide
tulemuse
Kar
ohu
##tuseks
äkki
##udel
juuli
##mera
##seeri
##ndite
idee
rõhu
blo
normaal
lähi
##stasin
##mar
kand
varu
liitu
valiku
jalg
spordi
##tide
##kogude
nõus
jääda
tipp
kena
järjest
erinevate
esial
keeles
mehed
pes
##vasti
esma
##neva
##tika
##side
avatud
nend
meeldib
##formi
tunnu
tere
viimasel
häda
##eris
##võime
##ktori
&
##ff
##stuste
ülikooli
unu
##rg
pruu
##lastele
##lite
eelmisel
##udele
konkree
mõeldud
##õpe
vahele
muga
seoses
värske
uudi
seekord
##peri
parim
taotle
kutse
sisal
ukse
maksta
5.
##telli
sõnu
bi
##neda
kokkule
Andres
pidada
meelde
märgi
10.
##hka
korras
ah
luua
##19
pika
##tusest
mõelda
vära
posti
tähtsa
##sida
##ooru
##ry
tüh
tegevuse
##ori
##terjali
võidu
teevad
pensi
traditsi
##mmiku
kul
näinud
laulu
käsitle
tehakse
Eli
aad
##der
##lev
##kava
##stusi
linn
##nevalt
##tre
tekib
##nime
##ajal
uud
ad
##poliitika
ometi
iseloo
##usu
##iki
omavahe
vabariigi
ver
##arva
suurema
projekt
##12
sind
kella
jutu
avaliku
vält
video
surma
##vet
##stan
pul
##rõ
##lva
##aine
##pse
eelmise
##tead
Tõ
tuntud
pöördu
huvitav
post
##protse
liikmes
meet
##luses
edas
pisu
nal
ilu
probleemi
poleks
ellu
##desse
vabad
nt
last
veelgi
##ndama
must
##sem
ülejää
tsi
##kaar
Tartus
võid
##üle
Ke
##rust
Mo
Nor
esimees
tähi
Põhja
kõrvale
pean
hinge
proov
mõlemad
##gika
##tei
§
popu
põhje
##vil
20.
tulu
kasutatakse
##asu
mõiste
lõppe
##pid
##nduses
##üks
##fil
enamasti
põhimõtte
So
köö
sellised
lase
##30
##joo
##osk
välje
Er
komb
teisel
##kate
pisut
vajalik
##õuna
pakub
##man
Aa
taki
##tajate
kinnis
pööra
##ameti
Ca
ehitus
ülevaa
##klas
Ale
paha
laenu
nr
tem
##hite
##ümna
rohe
liit
suhtu
##ler
sügi
##gused
vis
näeb
hulga
olulise
lava
##mokraa
##itsa
##kat
võimu
naha
püüd
##vor
##lau
milline
alt
põllumaja
kommu
haridus
X
##50
##maad
š
mahu
poliit
eelnõu
##tamisel
palu
valu
bussi
##mbris
##sik
aktsia
investe
minutit
kuud
11.
plaani
##ühe
##.200
tulevad
##ly
vahepeal
rääki
vaim
sport
võimaluse
mai
##mit
uued
##deks
prakti
##taal
taot
dolla
saabu
naise
obje
##idesse
möödunud
toob
Tallinn
ammu
##vald
pri
##leja
juh
vaimu
##nõ
Läti
##üsteem
muuse
igapäeva
##leid
##veeri
kest
teile
parla
##stav
##ümnaasi
enamik
olüm
tegev
autor
##vam
Da
oktoob
las
##aali
koolis
suurepära
Pra
##amet
oluliselt
taba
##ski
veebi
kuulub
teab
poliitika
järgmisel
Pi
Rii
##ves
##rise
uute
milja
##--
pidanud
ming
##jõu
##spe
##port
##liidu
pead
hetke
suvel
pers
saama
peri
suured
##ndavad
##umis
loom
trans
erinevad
##leeri
194
toitu
sobib
proovi
kaheksa
##hoone
jõua
selliseid
pre
koer
infor
Pee
##teeri
uuringu
##vane
kurs
soe
juhe
muude
varase
võtnud
nädalal
##poolest
tänava
##ring
profes
##tund
##likust
muut
##äh
##psi
ca
hinnangul
nimetatud
##son
##lje
hulka
küsimuse
##liit
iseloomu
##kadee
seadus
26
pis
pikk
mitmeid
6.
alkoho
##lad
ori
peamiselt
jätta
##kondade
olete
##lii
tehn
##stused
##võr
heaks
mõnus
##rea
##hulgas
ühine
tulemus
käinud
##kasu
Vilja
anti
peaksid
füüsi
põhjal
##com
##ppu
rõõmu
aus
##ndud
##ress
puhta
lasta
leidnud
##perat
##auto
pid
##ktika
##maale
##matus
saame
olgu
##progra
astu
##rektor
valida
analüü
sajandi
##lae
partne
olukord
palun
Ba
##välja
##võima
##dil
##plo
eksi
vere
muutunud
emo
vormi
võta
konkreetse
loobu
##sü
##jel
197
sää
väi
##enda
##taht
tõsta
meeskonna
tõst
y
##11
##kult
##ntsus
##lisele
##aasi
alli
viib
märkis
efe
##tavaid
musta
##ndunud
##eti
28
##idud
liiklus
mat
@
võis
järgmise
muutub
##pealt
##lma
Mosk
The
keela
##inime
teil
arsti
aastaid
edaspidi
27
võetud
eeli
##duses
##harid
nalja
vesi
Maa
tekkinud
jõulu
riikide
##rää
##mäng
noored
kommente
##ntee
##tsionaal
punkt
probleeme
60
jäävad
olles
treen
##telu
lee
##ingud
eelarve
sooja
##tsialist
suhteliselt
kümme
##kid
##nil
##ndiga
Ii
eta
võim
oota
paraku
lahendus
##tsis
jälgi
millele
##fa
noore
##ntsu
esimesel
sp
sellepärast
pakkuda
programmi
tõi
kiir
##stamisel
##ire
päikese
järe
võimalusi
patsi
esitatud
##võtte
15.
tööand
##müü
##lia
Ho
sõlmi
ühiskonna
puud
juuni
psüh
##ksti
##tion
lastea
No
tõenäoliselt
raadi
##bel
võimalust
##mina
puudub
suutnud
##eni
ettepaneku
konta
kinnitas
juttu
sõita
käia
##lina
Han
laia
##tsioonide
linnavali
saadud
inte
selts
süsteem
inglise
##orga
##rand
Bo
vil
ajaks
poolest
##vide
##õpi
iseseis
Ameerika
##lin
##stes
•
mulje
##nemine
andnud
##ndaja
suunas
##gil
##ür
ülejäänud
##gub
säte
Ur
kru
##teist
üha
pile
##sena
Est
püsti
ruumi
valik
##oog
##malda
pime
küsis
võimalikult
##dik
##listele
##ndile
7.
Vä
##leri
##teeni
##rat
meeste
##kar
minge
Jüri
tegin
tagant
##panga
##ndanud
kõla
kavatse
inf
##hme
siiani
##tasu
##aril
läb
leidu
vastuse
märga
läheda
ühtegi
järgmine
Tu
##tsioone
naised
##lugu
21.
film
ükste
komisjoni
näge
##uste
tul
12.
teenu
##keskuse
35
algab
april
omanik
##kutse
##valve
süsteemi
Oü
19.
aastas
deta
aastate
niisu
raames
1,
jutt
pandud
siht
Balti
##kest
väide
meedia
käest
märtsi
##rüh
mõtet
olukorda
Poo
##meetri
üheks
##gent
tehni
##graaf
##miga
Hiina
kinnisvara
pressi
sina
summa
millal
##nder
ida
tean
lastele
##jõud
##võte
##duste
##ratee
üldiselt
##jul
vasa
##rik
valda
##kaal
##meda
##ndub
när
##raamatu
põhjus
jalu
süüa
Lõuna
##kit
vägi
otsuse
00
populaar
8.
##hh
Posti
maksab
töötab
endast
196
Haa
Lii
tõu
tugeva
kasutatud
##itäh
##isp
##kivi
##leht
aprilli
##eer
meest
Nato
täiskasva
paik
##verentsi
##uri
##nii
pärit
kodulehe
loodud
võitis
vastuvõ
teises
rüh
jõudis
näida
valimis
ilusa
De
toit
jälg
fooru
##ci
##ooria
##vär
##udest
endiselt
meelest
nimel
töötu
##estivali
##kand
##lega
seisa
Pri
esindaja
mas
##rääki
krist
sõnas
tulevikus
Ing
##menta
hakkavad
##toni
selja
kogud
tasub
inimestele
##.2011
##kordselt
võimaldab
hilju
hooaja
##posi
rahvas
##tsioonid
tekst
##tea
oodata
##likul
muna
kumma
tunda
esmas
##tia
##ituse
liidu
##vene
##likoo
##lee
##mistel
Ge
##kera
Si
Narva
korraga
kordu
artikli
##inas
müüa
infot
rolli
eemalda
regi
linnas
justkui
suhtle
lapsi
##mil
reis
elada
tõde
seepärast
##õigus
rikku
Saare
raamat
##likule
##ue
kusa
##idetud
lääne
18.
tehnika
algul
tekkis
##lve
##pik
##ksin
lähtu
vastas
pinge
Ida
tundus
tagajär
##asse
##ingute
traditsiooni
9.
klubi
kohustus
akna
##nia
##tunud
aidata
meistri
##gusid
vajab
eriala
jumal
lol
##oot
tark
nendega
eesmärgiks
13.
14.
teis
nar
tol
##likkus
mõn
hii
Ru
usal
193
##misse
17.
kuskil
kivi
külge
taseme
korteri
Em
##inis
16.
Par
kedagi
millel
##gna
vast
Krist
##dsa
levi
##hää
##laad
Itaali
##tlus
##semalt
Prantsus
##kohal
koor
krim
##randa
##diga
##vaba
hulk
etteval
maksma
olümpia
ümb
ühest
##__
##tahes
##maalt
tehti
interneti
kellega
##od
millise
29
kurite
energi
ratta
sisalda
##har
kirjutada
##sioon
kuiva
paigalda
##jaama
pani
vett
sula
##rä
##üroo
ainus
alkoholi
##vanema
lemmik
##pt
seku
lah
##proje
arvestades
##han
tänapäeva
mullu
patsie
sõltub
##gne
telefoni
arhite
raudtee
esitada
##ale
##mite
selgitas
mõnda
paljude
lähedal
keera
nõue
suurim
tähtis
disa
##rest
##nuks
väikese
kaits
omavahel
parima
Ber
fun
sunni
jaanuar
väärtus
lõpuni
##ven
veda
elab
kaug
##siooni
--
##tuna
kingi
##20
tõmba
kõigil
##ema
aastaks
##õna
esimesed
igatahes
tahan
##tad
Fa
peame
Toomas
sisaldab
kär
oh
##ttesaa
võtma
prants
##sja
##mann
##maati
Pu
##aalne
mitmed
##ndamist
hävi
paneb
lubatud
##voo
informa
##psa
kaupa
millised
seits
lume
mingeid
tunn
selgus
esile
Vil
##sega
uju
elanik
täielikult
##ton
trü
kättesaa
komisjon
##ister
võistlus
pub
põhik
##kast
Saksamaa
##geeri
##tsioonis
for
##ndist
sõit
jõuab
toodud
Aust
esialgu
##kimis
saata
##kun
arutelu
milleks
Jõ
vihma
##wa
pank
##ele
dis
nemad
registreeri
##riikide
##ost
##juhi
hiljuti
suusa
selgelt
2009
pühe
##äär
##iste
##terna
##tiga
kolmas
##musega
homme
puhk
pinna
täienda
2011
aadressi
##sor
Ülikooli
##kirju
##mon
varsti
ranna
##vit
makse
##tc
##lisse
uudis
tegevust
##10
koosse
kalla
kos
##pü
##guseid
##korras
tüüpi
tau
##likum
treene
##leda
Suur
##ikaasa
Š
cm
ast
##ktide
näide
põhisead
sündinud
##haa
##star
tühi
##ou
##hai
##rje
lähevad
##õnne
här
##hoiu
##lasse
Pro
ülesanne
vilja
##nded
Eestisse
varju
tahe
pin
vääri
##lusel
side
vallas
##jaga
res
une
oleksid
́
laus
##mustes
45
##koor
##kohtu
enamus
demokraa
kö
Ukra
õnneks
Jär
kait
##risse
##lepingu
ohv
lang
pake
New
##liseeri
omakorda
30.
suvi
##lisa
##miku
opera
täitsa
luule
##dusi
kroo
##konnast
##ratsiooni
##beda
vab
Võru
Tü
teiseks
vaatamata
##hü
Sil
kuuluvad
##cha
ajast
telefon
kohalike
##jalt
##likkust
##tut
Mä
jooni
öösel
klient
üksnes
##rad
vang
riigis
abikaasa
80
##piir
kamp
##stame
##-3
##leb
##201
##hel
##lub
##kaas
varia
pikka
##ministeerium
##ravi
por
vastus
##lä
kirjas
analüüsi
##mustele
kellegi
##telef
hommiku
haldus
kauni
gümnaasi
##pile
##viisi
keelt
##mani
temaga
hakanud
loode
ostu
otsus
##linnas
##ndused
##ov
##mente
kuld
otsustas
teistele
soovib
2010
käesoleva
##kri
##ikes
vest
rünna
mingil
laupäeval
teatri
maantee
kõigepealt
teid
viha
mootor
sõpra
vanemad
laeva
peetakse
##tv
ükski
##nid
kaja
##ndamisel
##matud
sti
hoolimata
kevadel
saksa
##ndatakse
ühtlasi
üksi
külma
loodan
tiheda
nädalavahe
##kli
miski
konkurentsi
##ääri
tekki
artikkel
konkursi
##aaja
stru
lisada
tohiks
##stis
stratee
##hma
##pilt
##ktid
aar
##ilt
##kaid
kohas
usun
vastupidi
Ühe
70
keskmine
vabataht
##ineeri
##mängu
##sku
.)
kaamera
##vatele
muutus
##punkti
tuleviku
##reeritud
##kide
##tavaks
##stra
õig
antakse
naera
noh
kasvanud
mar
##ministri
Viljandi
peaminister
mist
valitud
0,
mail
aastaga
talve
meetri
kanda
maksi
minul
õppida
kommentaar
käima
##visi
röö
##tast
##usesse
##sesse
küsida
##vaat
õigu
arvata
##õttu
eralda
500
Sii
jao
Ni
digi
ootab
##stamis
korter
mõtlesin
##pan
hool
koostööd
tõsiselt
komple
rahandus
##soo
meeto
kohaliku
päevad
Euroopas
Ed
##ndik
tõl
tri
autori
##lustel
##rah
ehkki
mistõttu
##pakku
sattu
##kõik
igas
suudab
##aat
01
kvar
vahet
kraa
sügisel
##masse
kuue
Kü
Ve
##küla
vaeva
##formiera
korralikult
##lü
##ite
nädal
##konnad
tõepoolest
##ger
Be
paigu
teeme
omad
vaju
super
nõude
saime
##kesi
Kir
oste
nõuab
mets
algas
##10.
Rein
omal
##dub
mujal
materjali
tänapäeval
prog
##lõ
##mehed
juhtus
millegi
Leedu
tuule
##kto
##kade
##nemist
##giko
##peale
90
mik
paberi
Au
##mile
pääste
üliõpi
##pere
##itsu
kusjuures
veebruar
##tluse
32
käibe
seitsme
selgeks
läbirääki
2012
Soomes
hamba
tähenda
##moo
ülem
##tsime
prin
näidata
värv
võitle
nimekirja
##gatiiv
toote
Mer
kate
põhjust
indi
lahu
##lastest
##hna
nädalat
samm
##lile
konf
abiel
mängida
niisa
igati
silmas
automaa
pehme
tantsu
##uut
üheksa
jäid
or
võin
##isin
##muuse
pruugi
kirjutatud
Gu
kool
annavad
##kal
##kordi
meditsi
##pone
ühele
##listest
##tamisega
##toe
aitäh
lüli
tehnoloogia
36
sule
kustu
##-0
##kusi
##samb
Ker
sor
ümbri
##kii
##hkru
hob
puru
Estoni
kont
leitud
investeeri
Utc
300
##eesti
koostöös
eelda
kuulda
##nnet
kasutamine
põllumajandus
##fitse
hirmu
mõnik
##nemise
tubli
ande
kaeva
tasemel
vaatama
##sõna
##tunni
%.
ettevõtja
##his
##pes
##õppe
ükskõik
##.2010
nägi
piima
of
ete
välju
kaardi
##tami
tegid
toim
leping
tasakaalu
negatiiv
##staks
##stuseks
nõukogude
sealhulgas
maad
##öid
rahvusvahelise
##htus
vajadusel
Jaan
lisatud
nõua
efektiiv
€
nendest
##ten
Jees
##ndri
paika
põge
2008
Ki
##lisem
igaüks
##ron
##giga
harid
liikmed
##tage
võõra
organis
tütar
viisa
finants
programm
##hha
##sul
jms
##kondades
Ti
masina
##listel
##zi
##eelar
##voli
soodu
märka
##staa
##hii
##viis
olime
##her
##teen
staa
##lusega
külas
##jana
##kuulu
tahavad
aia
võitja
andmetel
protsess
hääl
##jo
tulid
kadunud
##aega
küpse
##koos
väärt
kasvab
lausus
##udeli
jõuda
33
##riti
varja
ennu
pingu
##chi
loen
julgeoleku
Martin
päevas
endal
planeeri
reedel
##len
moti
selliste
polegi
Kon
##ilu
##musel
main
õli
perekonna
ekspe
pannud
teemal
kasutamise
##vatest
teksti
##nikele
kolleeg
temperat
retse
toetus
soori
##plane
##vasse
Hisp
Eestist
Car
Peter
muretse
##rina
195
##ritoori
põlv
juhtub
##viru
##keskus
arvamus
##za
##jast
tude
taeva
klassika
kadu
võla
iseene
##koda
poiss
remo
saat
##hla
##geda
kaasas
külm
##vilja
võeti
institu
kan
esimehe
09
teenuse
##tiku
##rei
Pal
Valga
hari
kõhu
hinga
suunatud
22.
##rismi
##aastase
##maani
kõikide
##saare
##võttes
##tamisest
##ttus
muid
andmed
vaadates
192
laua
tulemused
##pen
##ow
silmad
##kese
##kute
##hve
opti
Meri
##idavad
endine
##xi
##rme
fir
massi
parema
põhine
mõnikord
Ser
##ulli
samasu
interv
võetakse
kange
lev
##vaja
##rte
nina
##mõi
##komisjoni
hullu
ühiskond
##eda
tarvis
An
##paiga
##kule
##oris
##pani
Keskera
##lga
ääres
##latsiooni
investeeringu
##lat
liig
niisama
leidub
Ga
lille
##berg
omavalitsu
prü
peagi
##-4
##meetrit
paistab
##taa
im
##mmas
kapi
##kile
naist
Ukraina
käisin
##kir
festivali
omaniku
tel
##euroopa
käivi
##eh
viimased
##tusse
##tari
kooskõ
tahtnud
kättesaada
haigus
otsusta
##qu
alustas
##iiu
Mari
katke
standa
##kur
suurte
majanduse
vari
riide
miljard
pikaaja
valgu
võrre
päike
ehitatud
##inik
keskel
nee
tõuse
##levi
keeruline
mõtlema
rist
saamiseks
sooje
##vin
##sinud
näo
##kinud
riie
seina
inimesele
nais
Harju
##lduse
hüvi
tahad
##ivo
puhke
##mere
##erinud
raadio
vältida
ajalugu
##noosi
juukse
koli
Savis
auhinna
Ind
informatsiooni
23.
##indaja
psühh
rada
näitas
konte
plaanis
")
37
han
muus
linnu
##paa
the
nähtud
kil
elavad
##teh
##kassa
kõigest
##ner
##eks
täpsu
kraadi
laa
jäe
##ikuid
##politse
Os
selgub
int
ii
##oonis
lõppu
##puud
rikka
kuulnud
reklaami
ulatuses
##das
##kre
tagu
##det
##ned
märts
##...
##nnes
##otsa
huu
ainuke
kogemus
alustada
toetust
olukorras
ministeeri
##nust
volikogu
sh
Rak
Vol
##ull
##ingut
##ea
arvestada
territoori
Vii
jama
äärmiselt
aset
##ndusega
määral
moel
pähe
Iraa
kipu
partei
sümb
##hol
riiki
visa
Haaps
korte
kasutades
hinnata
fra
anne
alus
##adri
2007
võibolla
##nile
##sema
võrrelda
##ral
##lehte
ilmus
oskab
##,2
##mistu
##mendid
resto
viimastel
##are
aktsi
nägin
küllalt
nö
näh
sellisel
asus
seitse
sisuliselt
##rva
olemasole
##gile
##viga
##tasime
sure
algus
terro
taasta
##tli
##rahva
tuleva
öelnud
lüü
##mitee
2000
väiksem
jalga
kõva
temast
##nute
otsida
mõisa
suures
suuremat
andma
31.
armu
pension
##mbi
##tajaid
spetsiaal
kre
##liini
##ideks
##ndiks
Kree
põhjuseks
##tegi
mootori
##hid
jo
##meist
##lastel
lihtsam
pensioni
meta
##hem
31
krii
sarja
##pressi
##lastega
iseenda
usaldus
küsimusi
##tamata
käivad
kohalik
##lema
praeguse
vanem
vastab
##määra
##meeste
balti
tekitab
kiiremini
##põhi
sõp
gaasi
kukku
võimalused
##isra
elust
haigla
##pinna
mõninga
Kesk
Urmas
koolitus
kokkuleppe
gara
25.
Lond
##kordne
kaubandus
##tuaal
##sol
sära
proovida
##muu
##veri
kohati
##kin
##liha
ajalehe
gra
##toime
kohvi
kasuks
soovitan
##asja
pilte
Taa
##abi
##para
kõvasti
##osoo
##plaa
hobu
##õidu
lahk
jõudu
maailm
praegune
stabiil
##hju
Ch
järve
prantsuse
jätkub
sõjaväe
töötajate
##nesid
häid
mobiil
minuti
alal
##mbu
koguni
organi
##makse
rida
võiksid
##mmend
hotelli
Bar
soodsa
osaleda
##stusest
valgus
kohapeal
piirkonna
##psu
hinnad
ilmunud
kitsa
ähva
asjade
relva
kasvõi
##rini
##metsa
pühapäeval
##itis
Moskva
peetud
x
##gine
##hinda
##posti
##stad
..."
eestlased
inimestel
kurja
tolli
##til
##,4
38
Tš
numb
##boo
34
teat
palka
uhke
oktoobril
Peeter
kindlaks
Reformiera
##kana
##muusika
tavaline
##hind
maal
paremaks
mõõt
Nõu
vabalt
erinevalt
##menet
aarde
kogus
toimuvad
vähendada
kütuse
toetuse
##cu
korv
tagada
##ööd
##laadi
professi
Tri
hoolitse
##vist
Ene
''
karda
suurus
##ikat
lask
sattus
vir
linnapea
##,3
lk
##maail
teisele
eestlaste
##nim
nõnda
Mõ
##eest
##kaks
##proble
tai
töötas
lõpetas
keskendu
akadee
jalgra
niimoodi
septembril
##ktsi
##indu
aina
õnnestus
##ktuur
magus
riski
##lei
##ktiivi
ainsa
odava
jagada
##mõõ
bä
iseenesest
##tanni
jagu
tohu
haara
Bu
tru
jäät
luges
konverentsi
põne
arvesse
##,6
##nnik
##sist
##järg
sini
Paul
tuba
samamoodi
mm
Wil
tulema
##anta
tavapära
##stava
Poola
kateg
seisab
õiguse
põranda
erakonna
Itaalia
jalgpalli
##gri
##ndusi
jookse
##siga
##juhul
##partne
puhas
otseselt
24.
suuremad
##rdus
meeskond
halb
majas
teemad
kultuur
##kapi
jätkuvalt
ettevõtete
##info
##turu
pidas
Sc
28.
pisike
mälu
Aleksa
organisatsiooni
kinnitab
kaasaeg
kahte
##ard
##olo
tänaseks
olev
palve
venna
direktor
elama
igale
menet
##alus
pikalt
kiirelt
tunduvalt
Bel
tihe
vaate
Anne
periood
Hu
##mail
##minud
##gede
kusagil
##nniku
poeg
avalik
##väärne
häiri
absol
##likoolis
##,7
huv
Inglis
läksin
##land
##maatika
valmistatud
##kret
##nini
naf
.,
korru
##th
näol
ärge
teavi
vms
##ruumi
pära
ehitada
##ker
##sil
##britanni
juhus
##.09
##bert
lepp
määratud
parlamendi
lühike
sündis
osakonna
##kuste
talvel
Sõ
tap
aitavad
##palju
õlle
esiteks
tunneb
ümbritse
##niiri
##liikme
energiat
vanemate
##vastu
Priit
pealegi
lähemalt
26.
suru
##päevad
esineb
Sto
võtsin
##kogus
niis
erinev
spetsialist
tõlge
saaksid
ülemine
looduse
maksimaal
köögi
rahulda
ist
Viru
klaa
kasutab
jõe
##jääri
kuninga
##stri
##selge
##riigis
tänaval
27.
neljanda
Suurbritanni
kehtib
kriminaal
geo
##oonia
saks
madal
tootja
üüri
##mustest
##arst
##tustega
parandada
55
Ste
##musest
##rdid
üksik
vajalikud
probleemid
kohus
arvest
küsimusele
##vokaa
aprillil
toreda
soom
võttes
Gru
sünnipäeva
oleva
usalda
##lti
kiv
tööl
viisil
hakkasid
kindlalt
toetab
##ille
allkirja
miljardit
keskmiselt
##15
fä
seisukoha
laeku
##stamata
##tustest
aluseks
arvab
muide
kg
vo
##õhtu
##ikest
Iisra
sammu
##pul
Joha
mikro
lüka
tarbija
##riidi
härra
##ühingu
saavutada
##vuste
andmeid
##tamis
##tuvad
##idust
##maade
Norra
Taani
Kat
absoluu
novembril
08
##pide
##indus
sugugi
##men
##majas
tarvi
eelnevalt
men
##õiguse
panin
algusest
tarkvara
##märgi
värava
reguleeri
korraldada
tulemusena
!!
##susega
##liin
muudab
teistest
du
märtsil
korralik
##ikeel
##rektori
##punkt
mon
Ad
##soni
aida
##ossi
edukalt
bö
liid
kodaniku
##tsii
jõul
Venemaal
näitleja
seejuures
risti
juunil
sissetule
##,8
Tra
rinna
mate
tuul
lõhna
konsul
tööandja
##sen
:"
suitse
tulemusi
##kande
##miseni
astus
uurida
##volu
kori
pala
püüa
jälgida
esimeses
suhkru
rahvast
##dete
##guses
põr
##mentide
kahtle
2006
statist
##loogi
plus
otsima
langes
alterna
##kauba
detail
lehekü
numbri
lapsele
ühendust
##rti
hing
##am
otsas
abielu
hulle
##kuses
tüdruk
neljapäeval
##guga
Eve
täita
kohtus
##organisa
Prantsusmaa
esmaspäeval
##ndise
##reemia
##org
šo
##ksus
##vanem
laag
koord
olemasolu
salve
##ky
vangi
kallis
per
##matuks
##beli
vahend
töötanud
vaatasin
viimati
piirkonnas
##dist
##tm
matka
läksid
##bla
oligi
##inaali
ühise
asjaolu
pei
siinkohal
õu
##laselt
##ket
soola
kenasti
sõdu
29.
kuule
kuhugi
##tuda
400
esmalt
kontrollida
tuva
co
##nikatsiooni
nägu
jätkus
andmete
huvitatud
ajada
pilti
lood
56
da
##made
kasutusele
##aga
##fir
##grupp
Kadri
kasutus
leidsin
Ä
liikmete
kahtlu
peamine
Q
sõbrad
tutvuda
tükk
tänase
asuvad
##hä
sõda
dollarit
eil
paist
praktika
##dias
magama
vahetada
mes
hirm
konflik
riigieelar
##200
seltsi
suuruse
##lahe
Holla
hõlma
surnud
keelatud
normaalne
Her
hoolda
vaikselt
protsendi
viibi
pildid
maakonna
riikides
##juhti
##masid
meditsiini
##kides
laiali
##ikoha
pärito
Päe
arvatud
hakkasin
It
##ndav
Indi
number
kutsus
väljaspool
kartu
##het
Pan
tro
ääre
##isko
##kuga
vastust
Õnne
##stuudi
hinnaga
##küsi
Por
##old
##fika
mõnel
sidu
konto
projekte
võistluse
##spi
Kau
hoiab
lubas
##ze
tõusu
##tamisele
sõber
##mustega
kasvas
##tem
jahu
kirjel
terviku
tuhande
##dalas
viina
esmakordselt
##lan
150
kaela
seksu
Ai
jätkata
oodatud
suureks
kogemusi
San
nurga
esindajad
transpordi
##järve
eemal
teate
kellest
korduvalt
põhimõtteliselt
##õli
##olek
kirik
sol
##ingus
##tustele
materja
eksa
pandi
Eestit
sõitis
diag
graa
seks
soome
nimega
tõusis
meetrit
armastus
til
erilist
##18
##ši
39
##lves
##kümmend
teisiti
kavas
##mistest
##mü
##lasest
vanad
kuulus
detsembril
territooriumi
##ren
44
##juha
2010.
kasulik
vastava
vastuvõt
##ži
48
hotel
pel
##ido
lubab
##õit
##tulu
##esindaja
##porti
taks
valesti
##gressi
omale
##ör
lühi
tunde
Indrek
grupi
istus
°
kõrvalt
##pääsu
##starbe
##tiline
hamb
lõpetada
Is
mäe
tooda
koguduse
õpilased
kahel
aprill
õnnestunud
##–19
("
##eet
bio
##mpa
ali
seik
nafta
kirjutanud
2013
meistrivõist
2009.
osales
saatis
##stamisega
täpsemalt
##kov
##raali
##all
vanus
poe
loogi
kaitseväe
Lau
##risti
veebruaril
diplo
tegelik
teistsu
##,9
lõppes
teenuste
##esi
##õiva
Euro
niivõrd
##paist
kassi
reklaam
vajavad
korraldatud
puudutab
##ider
ajaga
maali
pärine
koosneb
vabadus
##etud
liiva
pettu
kestab
sobivad
ot
42
##tatav
gene
pankro
##materjali
päritolu
rahulikult
lüüa
kosmo
osanud
##lustus
palli
loomingu
Put
asuva
sihta
eemale
##inad
augu
##gevuse
avaldatud
##ph
2014
avaldas
##onis
kree
Do
hõl
##jatel
##lusid
kuulsa
õhku
autot
jooksu
istungi
keskuse
##võtja
##stajad
autoga
kasutavad
professionaal
##kab
##alse
##graafi
viimast
tunnistas
Kalev
koali
levinud
koosoleku
ühiskonnas
elav
kvaliteedi
##kuid
##osas
##tingi
pakk
väsi
Andrus
##ndades
sauna
##süsteemi
2011.
kommentaari
mö
pakkus
meeldis
soovitus
##.08
##ila
laine
kolmapäeval
##ligi
märkimis
jaanuaril
ülesande
##õpetaja
Kõ
testi
välti
##teo
##niga
##lahu
##mängi
päde
##.03
##listes
kaugusel
linnavalitsuse
##sõidu
sihtasu
tööstus
##msi
##grupi
öeldes
##tehn
##kohti
mater
perioodi
##.05
sin
kõrva
##kokku
kulge
mäleta
põhimõte
07
##mega
test
lükka
Rakvere
kirjandus
osaliselt
pannakse
isiklikult
##alne
Hiiu
keskmise
##vidu
1000
##semaks
halve
kohalda
##isus
korja
Etv
##nikke
orien
##bid
##kol
veo
Margus
toetada
##bas
Mad
##ft
##ntis
riigid
augustil
kergelt
meister
ž
##kiga
##etika
kannab
kokkuvõttes
##tustel
elanud
kuku
maju
nimetada
Fo
arua
lühe
naut
kaugel
trenni
meenutab
muuseumi
##kulu
kampaania
mõistlik
ea
##ikut
##ttide
Tõnis
##programmi
märk
rase
võimsa
nädalas
##sv
##adid
väljakutse
##eerida
##büroo
##verents
suitsu
2015
##inguid
Yor
##tua
##ringi
Tä
naer
viitsi
väikesed
##ceboo
panu
ausalt
omaette
suri
eeskuju
vajadus
tundma
töötada
räägitakse
jt
##isiis
peeg
##bia
##laua
##lusest
lähen
võtavad
2005
neiu
roll
##konnale
juriidi
##uto
täh
liigub
mängus
väikest
##mple
kliendi
kindlustus
##ald
Ir
##haig
##tuga
kujul
vanuse
asukoht
sellesse
Pari
##seadus
maini
##eeritud
tingitud
##tööd
Sta
Hispaania
aadressil
##kist
käed
ameeri
el
Mtü
Go
##nnis
##tite
def
##tatsiooni
##valitsuse
##külg
##regist
niisiis
##int
Haapsalu
Kristi
individu
kontroll
põhjusel
##muga
ben
##ajalt
mõnes
võimatu
##kohu
kuulata
lastega
huvitava
jahi
valis
kaitsta
Tele
pildil
Laa
##.07
##isk
##ssa
##ikse
sageda
Bra
Mee
mängib
asukoha
##nel
##vana
lause
invest
tegemine
##lil
Mm
tolle
tunnen
toodete
lahendada
Nõ
saare
meeles
moodi
sätestatud
suurima
##10.201
##komisjon
määruse
mingisu
##dused
##kursi
47
##ndate
paremat
##huks
mõtteid
##arsti
##joone
staadi
suurepärane
##vähem
karika
ulatus
eelmine
karja
sõida
##huvi
Tiit
##pärane
töötajad
september
tse
tegeleb
##ong
##nas
%)
##taga
juhtud
##gar
##veda
ska
##käigu
mass
klaas
taastu
õigust
tingimused
teisipäeval
##hkel
##vabad
53
minister
reede
arvamust
miljardi
##indow
##nsiiv
Karl
##märk
##jatest
tootmis
##oonid
lõike
tõeline
##ya
lik
##graafia
jättis
kutsub
protsessi
##jud
soovivad
küsimused
Mär
masin
põnev
raamatus
pealkirja
allu
kale
43
kirikus
##keha
##nnid
vanu
##.04
##aduse
kast
toonud
naab
lisab
##kontro
välismaa
##tamas
lõiga
pääst
juulil
õhk
kulub
saagi
üleval
ülevaate
pesu
saar
Pärnus
hoole
seisuga
sõnad
piiratud
õpilaste
##oogi
laadi
kaugele
##positsiooni
blogi
oleksin
##kilt
##nova
##lasele
noori
propa
veini
aegade
teadmisi
tervishoiu
Ab
2016
appi
tutta
##latsioon
##-19
##lisuse
##tüü
##oloog
##seisu
tänud
Es
tuhat
46
;)
##klassi
suurendada
soovid
karjääri
##ys
##dri
kurb
##vikus
Jaak
usk
##iniku
##setest
endise
visi
Saksamaal
##uure
külje
meeli
##süsteem
konser
passi
univer
inimesel
##pin
##poolt
Tamm
##eb
##raamat
asjaol
kontserdi
pressiesindaja
Hen
##volikogu
##valge
õppima
läbivii
##kodu
##kultuuri
rel
ettevalmi
##,1
juhtunud
ühenduse
##gani
bee
hau
##mmata
##steks
vede
kaotas
riikliku
##via
ressu
lahenduse
##igi
##koolis
turul
ootama
Af
].
##manni
käsu
äsja
##ros
##----
kasutama
mehi
vood
##laseks
inspi
arenda
filosoo
selgitada
##landi
Kivi
pesa
##muses
kara
tagab
Estonia
toiduaine
nädalavahetusel
bo
##mets
hoi
kulla
valits
Päevale
algselt
tagasis
õigesti
##40
Jan
imp
sund
##rts
##vusest
Postimehe
##menti
enim
2008.
poola
areng
maine
oktoober
miini
tagasihoid
##pre
75
##taar
Per
öeldud
tõenäos
elektrooni
tehes
õnnestu
##stud
Gre
elanike
##koja
ilusti
miin
##post
lubad
intervju
räägivad
kuri
teisest
töötavad
ansamb
turismi
üldjuhul
##nnal
##tsust
##aad
senti
mängis
proovis
##öör
töötle
võinud
tš
##haridus
tahtsin
##erimise
rahvusvaheline
oku
söögi
tegime
##ralt
##lanna
##treene
##talis
tase
kandis
variant
peeti
tõeliselt
Iii
##kasvu
loob
ühelt
##kle
##____
valminud
##rn
##aval
##ngid
rež
ligika
nüüdseks
kasutamiseks
##ndina
mur
võitnud
##kesed
##ginaal
jätab
minuga
osalenud
eestikeel
##nuste
mingid
vastav
võtsid
##valu
##plaan
püüab
##km
##rada
##tilise
emotsionaal
Kreeka
teavad
öko
peas
sekku
voodi
lugeja
väiksema
religi
##-5
ste
##teeru
vala
võrgu
##programm
jalgpal
otsustada
##.06
tas
##pä
siga
2012.
kulud
leiti
##ptsiooni
publiku
õnnelik
##tute
osad
signa
vanaema
veni
vorm
küllap
##nõukogu
platsi
riigile
vaevalt
Keskerakonna
kasv
tolla
toimib
internet
##väl
##veo
kaetud
kukkus
küljest
maailmasõ
bro
parimad
pöörduda
##sise
koosseisu
ruum
teele
##kadeemia
artiklis
##tš
1,5
2017
Kuu
Kana
##stusega
Sch
##tiste
##maailma
arutle
##orid
##aluse
õuna
mõtlen
##teedi
##kaardi
##mägi
fanta
hukku
toona
katuse
mõlema
kohalikud
strateegi
jm
tempo
intensiiv
valdkonnas
##pres
Tal
2007.
##pääs
##klubi
ütlesin
2015.
pidid
teeks
kliima
nautida
pühapäeva
##cki
58
nur
milliseid
nimetatakse
Del
heit
tugi
harra
tervik
ilmselge
##valla
detsember
kellelegi
##aalse
katsu
küsib
lapsepõ
tekkida
võistle
inimestega
hoiu
piisab
küsimustele
omavalitsuste
lege
##tii
##rida
dii
õde
elamu
november
Nõukogude
##ill
neis
regulaar
Ex
##iska
##kool
##ndati
##stani
mesi
ostetud
##gen
pur
tarbe
sattunud
raamatupida
omavalitsuse
Maria
poolel
sobiva
juhib
leeve
akti
sümp
##meeldi
praktiliselt
%,
vt
##liseeru
##ines
rääkima
sõiduki
##ete
##ltsi
##jan
49
tonni
ülal
##peetud
arvas
kinnistu
##60
##ladi
hel
sei
##kraan
pist
52
##pitud
prote
erinevat
loodetavasti
##cc
avalikkuse
kehtestatud
reno
##loogia
teeninda
##.02
Üro
##ikust
##lisus
taju
rongi
börsi
##taval
natukene
##mir
proto
täiskasvanu
organisatsioon
##dag
paks
Man
toas
dekla
esitas
##varu
ajas
ettevaat
vihje
suhted
##reeru
vahi
paber
arendada
##elä
##semad
näite
Õnneks
##dada
##sarja
dire
Las
taotluse
##koh
41
katki
algust
mõelnud
Riigiko
üksteise
rased
kandidaa
##ias
koori
vaatab
tõusnud
näitavad
##iilis
##mistele
vastata
raamatut
##inspe
osutus
##majanduse
rääkimata
arhitektuuri
ajab
kaha
##delt
##pete
##fondi
kass
##toimetaja
lõppenud
positiivne
##kondi
turule
Postimees
##häi
##mara
jääks
##stasime
väidetavalt
eseme
kiirus
suutis
met
lugesin
struktuuri
igav
tegeleda
tekitada
##öde
pihta
tasandil
Kas
##matut
kuts
palja
poisid
##atri
füü
##kants
näib
rõõm
##laid
selga
liikuda
vää
kiiru
professor
##jja
##pli
vu
##onüü
##ndiku
albu
ettenä
parata
arvatavasti
ekst
##raator
harva
##tunne
mara
##stajate
uudised
kvaliteetse
Len
teatel
##yd
##van
tsivi
teemat
##vitus
tõdes
Eestimaa
Hol
klassis
lasteaia
Jü
##liiga
##samaa
näen
tahame
teistel
##õbra
hetk
ettevõtted
keskkonnas
##eta
##mer
Mal
##kahju
jalad
ebameeldi
ligikaudu
gümnaasiumi
##rss
büroo
##telefon
##gad
##lab
Nsv
mõjutab
probleemide
##emis
jube
leiu
otsib
klub
palk
vähi
##gusele
##aalselt
##reerida
huvides
pakuvad
suva
pidama
vahest
tõmmata
##ikus
##ingas
##oonide
kahtlemata
##miks
##juhid
paga
hariduse
##ndat
##ndasid
persona
teadnud
Ansi
nõuda
olegi
prügi
viidi
säilitada
Kä
dollari
pealinna
selgitab
kasutanud
praeguseks
##24
##põle
##usia
##frika
Lauri
õpetajad
kasutamist
linnavalitsus
##iker
teabe
läheks
mais
narko
käega
viimaste
konstru
tähtaja
sõbranna
poja
Põlva
tuttav
linnaosa
Iisraeli
kellelgi
korraldab
##hing
##pank
##rega
##.2009
tahtis
##probleem
kaotanud
originaal
##ulda
kole
töös
Tamme
tooni
kõrgem
ekspordi
mainitud
lahendusi
lin
Briti
sarnane
lao
halba
refor
##hariduse
jällegi
mitmel
veendu
täielik
avalduse
Tarmo
halli
jätkab
valiti
näidanud
##tile
2013.
reeglina
##jes
argu
##stumise
disaini
muusikat
##mse
lää
korr
2014.
näeme
igaühe
##eel
riku
järgmised
##site
##oogle
Kalju
viida
veebilehe
##iits
sadu
perspe
kilomeetri
süve
soovis
##studa
##kirjad
võite
kodanik
langenud
mälestus
vees
##ritega
##semele
silmi
Kalevi
plahva
ekraa
lugenud
##stamisest
##jah
Du
ul
peo
vea
lõika
panen
mõtted
tõuseb
##pel
##pidu
aitas
tausta
##orm
ütlen
##seaduse
tantsi
suus
kütte
valus
sadama
sõidab
paljudel
jääma
raamatukogu
##80
##inid
##teed
Sir
kino
male
määratle
##lide
reser
57
Kan
näevad
advokaa
##rabi
heas
##paberi
mõõdu
jätnud
lõpetanud
veendunud
paiku
niipalju
erinevates
ettevalmist
muutuvad
##ved
##arvu
abiks
heaolu
teadlased
##llis
Ter
##keskuses
sunnitud
##riigid
sulge
hakatakse
##masina
tumeda
juhtimis
51
tähta
seondu
vahetus
##ndaks
##rühma
##singi
Järva
muuhulgas
##ked
##mai
aku
##ülesa
Ühend
samad
##ohu
##ots
Toom
kalda
loomade
mäletan
tooteid
alternatiiv
raba
maale
pidin
vahetult
murd
poes
##erides
Window
##stist
ahju
isla
kuskilt
Kol
##päevi
aspe
hüppa
##inaalis
millist
##hl
##geva
sügava
##tul
05
esialg
##politsei
##ige
##linn
##likest
2006.
ideed
minnes
närvi
surnu
vormis
##osakonna
,,
juurest
juhid
korraks
ametlikult
Sal
lina
kadus
toon
endas
surve
##pad
Noo
##teema
kaob
keset
septembri
##dad
##loba
hiljemalt
54
seisma
vägagi
z
06
kohad
tellida
pron
vend
##statav
ts
##uurid
elas
aastane
arendus
##nemis
aegu
eduka
suude
Eestile
eestlane
juhtudel
##oe
##mäel
##meest
häbi
lõbus
tudengi
02
issa
##kontse
protsed
teistes
noormees
restora
Con
sär
bensi
loota
pileti
internetis
##nit
lootust
olulised
lind
##nar
Vel
ruut
vallu
nendele
varasema
järelevalve
##pet
##vatel
uues
vajadust
##sal
##fel
##lemine
meelelahu
##baa
käsitöö
Saaremaa
haigekassa
lg
kauem
sobiv
##pake
Wa
##tunde
kogenud
saadaval
600
Tõnu
tuuma
esitab
##bin
Faceboo
oi
Vladi
lehte
palus
Mihkel
alanud
arengut
tiitli
mitmesu
loomad
miinimu
##käik
nahk
õnni
##konnaga
##tegevus
vaatan
asjatund
otsustab
regionaal
tähelepane
##laine
##volutsiooni
##hki
##sia
vanuses
õiguste
renoveeri
##uli
esitle
üllatus
esimesena
##ct
#
##ote
Marko
osaleb
##majandus
##mel
191
panema
septembris
03
##radi
veid
endaga
seadust
akadeemi
arusaada
##kaja
nõr
märksa
esindus
arenenud
##up
toru
##likool
##erimine
näitus
seemne
laupäeva
##asia
For
##tavale
miskit
kujunenud
##ama
tali
takso
välisminister
Valge
haava
nõrge
lõikes
##visiooni
koostatud
##sea
##ühi
##kaits
rõõmsa
hooajal
ähvarda
põhiliselt
##kta
sajandil
##tudes
##kretär
2005.
lubada
klientide
##stage
##korral
liigi
rühma
turist
saadetud
##dra
##mor
tuju
noortele
##roni
tõhus
astuda
puudus
##lgu
##rov
küsimust
paljudes
peatreene
);
##ritele
õppinud
demokraat
aastakümne
Il
Var
##dam
Uni
lipu
Peterbu
määrata
valimistel
tingimustes
jääd
##stumine
nentis
pooled
##erib
Fran
hamma
muret
seegi
näituse
justiits
sellises
65
tsü
moodustavad
üritus
tulumaksu
##oom
Türgi
##lustest
minust
##ees
##komitee
vastupida
õpetajate
##pöö
aktiivselt
libe
naaber
olulist
naisi
kutsuda
harjunud
kriitika
innu
logi
poolda
kavatseb
soovitab
kodust
stressi
##bal
tõs
Saar
saalis
##rv
##nen
##reeni
kapte
Maarja
kohast
karistus
##ering
##sides
Mati
mugav
likvid
suletud
Rüü
sääst
lapsega
vaataja
maksumaks
##õnu
##arne
##võrra
parte
seest
uuris
saabus
kontakt
treener
Bus
partner
teooria
vastavad
##gur
##lai
##olf
##pud
##öök
##sile
homo
leht
vaatas
##ülikooli
.-
meda
lõpeb
##riikides
oluliseks
Suurbritannia
##lalt
pli
mude
##jatega
##mbrist
Eü
perekond
ootamatult
##led
##raat
Kor
plaa
aluse
kohti
talli
miljon
Savisaar
##sas
##tuid
sho
##ttevõte
stardi
valimiste
##mida
##kused
paremad
puuduvad
väe
range
##protsessi
õue
##aalis
häält
olevad
rakendus
##evas
Pla
priori
omavalitsus
##eeru
sõitnud
korraliku
Siim
möödu
##kohtade
##periood
hei
##isiku
##kvali
##ban
At
##tised
kaal
puutu
##planeeringu
strateegia
tegemiseks
vahendusel
andsid
käisime
teenindus
##itöö
##konto
soovin
##teel
Liit
audi
juua
veri
tänav
##ratsioon
garanti
##puha
Mon
##ndisse
peadi
hilise
isikute
veerand
pakutakse
##dama
näitle
paljudele
arvel
globa
eriline
halvasti
reaalselt
##inde
##rikas
kriis
oskus
Rootsis
liikuma
digitaal
##teet
kõigis
olulisi
psühholoogi
Sha
võida
keskus
suhete
##temperat
tehnoloogi
investeerimis
registreeritud
##ley
##vusi
tüli
õud
##mistega
kompone
pikkuse
kontsert
ajakirjanik
Flo
märkimisväär
##idid
##kter
Geor
##stusele
sõitma
Vik
Ants
ohtu
puhka
otsuseid
tagasiside
Brü
##riteeri
Cha
kle
##likele
põlve
punane
semina
tööjõu
kaugelt
minimaal
tööta
ootavad
tagajärjel
##ndo
##raadi
tahes
võita
ekspert
kirjuta
kodanike
piirkond
##ngud
grupp
##konstru
teenis
klass
põlev
kombel
##tentsiaal
sõlmitud
vastutus
##arist
leiavad
2016.
vajaliku
vaen
Hansa
tugine
Nb
##muuseumi
jaanuaris
kõikidele
temperatuuri
##kanne
##talli
ürituse
kvaliteet
04
##pesu
jäta
aktse
##toa
kro
##juhtu
##setele
##nine
näed
magist
tehingu
kergesti
##koge
keemi
rahule
koondise
##kale
##stuses
olulisem
esik
hull
kumb
viidud
tundsin
tants
kompen
vitami
konverents
St
kõl
##paika
##lemise
##lidest
identi
väidab
valmistada
poliitilise
Ger
2004
laad
##projekti
uurimis
augustis
ülevaade
raamatuid
Saa
##usand
rasva
tasku
##ktiivne
asemele
##usk
##öögi
puuri
sündi
õigusa
juhtida
kilomeetrit
Andre
Lätis
##sar
##vägi
aare
kogem
hakati
hooldus
tervist
##kala
Mik
##tavast
rakendada
##stit
parki
ameerik
välismaal
##-201
alle
##telefoni
##äit
##jude
arust
##mul
Raa
##turul
filmis
##võistluse
kasutusel
##üsi
õlu
##levad
muru
vaatle
haiguse
##laul
fakt
aastani
suudavad
öeldakse
##ente
##ruum
##sing
järjekord
##zz
##fia
kane
##nädala
metsas
tulemuste
absoluutselt
Sw
##maan
##määr
produ
lõbu
meeld
autode
treeningu
##-6
ple
##vahetus
tõsine
juhtuda
täidetud
tulevikku
##mmis
vile
##matust
##tehnika
uudiste
##stamisele
Mat
##metis
Tiina
järgne
vanade
##protsess
automaatselt
##-10
Anna
märtsis
nagunii
190
nau
arhii
katte
menüü
vanni
kriisi
##pus
##tepää
odavam
seadme
tulenevalt
Unga
##taseme
peres
laulja
kandideeri
tulemuseks
##bise
##raja
##uuna
kõrvu
vahva
pöörata
tekivad
##hm
ralli
treening
intressi
##70
|
##dul
##itu
ope
##minar
stuudi
##setel
pood
ideid
ollakse
põhjalikult
##90
##gudes
spon
kiusa
ohtlik
kommenteeris
hele
##torite
tööde
väita
##lav
mõis
esines
Ilves
tuppa
uskuda
Vladimir
tavalise
##iks
kata
ootan
liikumine
##nov
##by
##palu
##vise
klee
Kures
ettepanek
##möö
##tustes
kestnud
looduses
##võim
Kul
Aivar
##meistri
minist
naabri
väljatöö
Jaapani
kõrgema
rahvale
võitlus
kommunist
##hääle
##estival
mängija
kuningas
##hhanis
kummi
langeb
vältel
##gip
Fc
##jala
tõmma
järelikult
niigi
Rä
##proo
##lustuse
õhus
##musele
avada
õitse
Kre
loodab
versioon
##keele
##laeva
##gentuuri
##rast
Otepää
kodakond
kooskõla
kunstnik
inimestest
##püü
lepi
skee
##konnal
säära
mitmete
aktiivne
mob
vür
Piri
kaunis
Juhan
tänan
muuseum
Sim
##kasti
kuivõrd
Ala
##katse
saates
##mendis
mõjub
##poliiti
paralle
seksuaal
##kül
##uuris
##voolu
sein
Uus
segu
2004.
teame
veega
##õiguste
rõhutas
korvpalli
puhu
Rapla
viska
ükskord
##tehnoloogia
Tallinnast
##vuses
##tiivne
järsku
vangla
töökoha
loomulik
##bida
##meri
dra
võrk
##salu
##esime
##ndide
ebaõnne
##pris
uuele
igasugu
tähtsam
mani
iganes
kursis
mõlemal
59
##film
##museks
suhelda
võrgust
avalikult
Jeesus
käisid
ettevõtlus
We
##baasi
##piima
##ratta
##vusega
peegel
loomine
elamis
aidanud
Reformierakonna
##issa
##jusid
##press
võtan
plaadi
vastuol
põhikooli
potentsiaal
##gik
##reisi
meelt
missu
naeru
##demokraa
##laenu
otsust
raskem
tulles
isiklik
meelega
tervikuna
Mc
##täit
Kär
salli
administ
tasemele
Rah
oks
##udeks
John
innova
klaasi
kannata
koolituse
oktoobris
##45
##nor
Slo
##umist
kirjanik
roma
##lava
suju
kõlab
puidu
tolmu
##inii
##pendi
maht
roosa
situa
##üna
##kolle
tooted
kvartalis
##dika
##jooks
##perioodi
teenust
vahendab
kohtumine
Us
Sel
aita
nupu
külmu
teede
##teenuste
peaksin
räägime
maastiku
märgitud
seadusand
##25
##nur
##iner
##tarbi
tume
oleneb
otsast
muutmise
##vile
Kaa
Paa
##inist
ooke
##päevast
riigil
puhkuse
vaatame
otstarbe
venekeel
ettenähtud
ilmselgelt
kinnitusel
##kp
Tii
juma
Musta
armsa
muinas
kasutati
väikeste
##yo
##juse
Edgar
Stock
fondi
meeldiv
sid
2000.
imelik
ostsin
oktoobri
patsient
põhiseadus
##imi
##geni
##hool
##htla
ake
port
dista
kahest
mudeli
sügis
##lts
##oos
##nõud
Riia
poisi
Enn
pese
pluss
poodi
loobuda
rääkinud
tegutseb
tunnevad
ajakirjandus
##mpi
##tvor
Res
von
##nedes
manu
##rahvas
maaelu
seltskond
##tata
Fer
naudi
##meister
tuvasta
eestveda
jaanuari
reageeri
##ib
##tuba
##tsiooniga
##cro
##kusega
lastel
tüdruku
liikumis
detsembris
planeeritud
##jev
##susest
Serge
saatus
dokumendi
##mentaal
jäetud
tänane
finantse
Za
taevas
pelga
tõste
Google
Jaanus
kaheks
bensiini
##hkust
##mikus
võlg
osalevad
piirangu
piirivalve
##irja
ripu
paind
hulgast
aprillis
##ase
##vai
ärka
##sektori
veebruaris
##ony
teisalt
##stata
taim
lõpul
ootame
otsingu
perioodil
suhtumine
##keid
aud
##eläbi
kile
objekti
punktiga
tegelema
##katte
vaat
tühja
mängima
päevast
kaugemale
tunnistab
##ndusest
lahkus
puutub
##illi
##paik
Gro
visu
##kohalt
kihu
üpris
vaadake
pude
armas
armee
kõikjal
armastuse
Vo
##ühis
peatü
tasuks
sõiduauto
##foto
##kamp
eva
leidsid
seeläbi
##husa
otsustasin
##nõude
##otsi
##pist
far
##teise
rong
##stuvad
##aastast
##energia
jäätme
teenuseid
Ee
qu
õues
stsena
paragra
teenida
eksisteeri
matemaatika
poliitiline
##jao
Tv
Balt
etapp
juhtis
sotsiaalmee
##vede
Lan
laval
meeldivad
novembris
##ffi
äre
##dudes
##kaart
##ruses
piin
##poolse
piisko
riigika
avaldada
suuresti
##pri
paki
halva
teavet
meeleolu
kõikvõima
):
Micha
##nditega
vaielda
##nima
isikliku
vabariik
koalitsiooni
##inide
niiku
Robert
##aan
Joo
võitu
neljas
##kapitali
##tr
##ööri
eksperi
olevate
liikmesriikide
##mmer
##neks
Cit
veeta
käibemaksu
##bes
##uda
Bns
ravimi
väitis
käigu
lammu
ostma
arstid
ühingu
loodame
artiklit
tahaksin
##blo
##lap
##täht
Nar
üleü
lähiajal
ebaseadus
suuremaid
##pood
##liiku
##valitsus
kohtumisel
lennuki
nahka
teatab
võrdle
##tustu
Panga
ilmub
standard
##ssu
iial
võlu
kategoori
##bine
Eks
Jürge
nimed
sõrme
##harju
šoko
##leping
asjast
ekraan
möödas
ööpäeva
##kolli
loogika
800
Loo
rahako
juhatus
poliitikud
sisaldavad
##16
##sada
##lesti
vahu
tuntu
Jõgeva
seevastu
kasvatada
prognoosi
Nu
250
Nõmme
baasi
kergem
küllaltki
##duda
sum
##dustega
sündmus
demokraatia
karu
arvavad
sarnased
õnnestub
lõõ
müra
India
voolu
liialt
laht
kompa
öeldi
kallal
seeria
sektori
orienteeru
kl
##arve
##neid
##poolne
kaart
karmi
teoree
viiakse
sarnaselt
Gra
##tajat
suud
kredi
kritise
mõjutada
novembri
omi
David
laena
võtame
allikas
usaldusväär
##cm
mahe
töid
kasvavad
aastapäeva
maksis
ühendatud
##kuks
näpu
preemia
##osf
edetab
##kätt
odav
saba
##nduvad
sööma
lihtsu
nägema
väljaa
puhtaks
##gro
kuva
1999.
Windows
tegemise
ministeeriumi
##cel
2003.
leiad
elluvii
läksime
vahendeid
ülikoolis
##joon
##järgu
ilme
põhiseaduse
käsk
müük
pommi
ükstei
prognoo
Ev
120
##järele
Kristjan
niikuinii
##näge
igaks
okupa
püsib
õiget
dokument
##,0
Taavi
päevi
##ev
##lennu
jõudes
alustab
ebamuga
kaotada
lahingu
tootmise
##kurs
Hal
vigu
##kirjaga
Ain
pois
trüki
keskera
valdavalt
##kohus
valuu
##stumist
nõuete
pakutud
väsinud
kontekst
loetakse
Jä
##tajatele
uurimist
detsembri
##17
En
Liivi
infra
tütre
eeldab
jalgratta
täiskasvanud
##obje
rüü
##ngust
tahte
kinnitada
looduskaitse
##we
##sene
##tside
kätt
salaja
valdkonna
##bergi
##filmi
suursaa
järgmiseks
ärri
kuuma
täius
Austria
##püha
##tude
##strans
Afgani
elanikud
kinnitatud
##ght
ky
aed
päl
##kurat
naud
ruttu
lapsel
kiirabi
ütlevad
esitanud
##uss
toa
##detud
ajad
tabe
prakt
vasak
tekitas
ametisse
##pinda
##päevade
##loa
jaani
ilusad
riiklik
Pä
##luba
##mmuu
annaks
Pii
ehit
küün
##tastroo
nõuded
##seeritud
vajaduse
##tuu
##stikku
nõuetele
liikumise
otsustanud
**
Anu
põhjustel
##13
Or
igast
seaduses
##op
##aasis
usub
kuning
füüsika
tugevalt
dr
##adus
##himu
##ritöö
Vaba
juur
karju
selgu
kogutud
aimu
riigist
moodustab
tahetakse
toimetule
##kam
asuv
lugusid
kutsutud
Pü
nuti
turniiri
##ske
trahvi
koolide
lubanud
parasja
##kontrolli
tunnistada
perspektiiv
##alune
funk
kade
poest
väärtu
lugedes
sooviks
##keskkonna
autos
hukka
parasjagu
##wer
noors
äärde
stiili
postitas
atra
mari
läbis
mõnusa
##hin
##minu
puude
roots
saadab
##stituudi
pääseda
pikemalt
kolmandik
ühistrans
Di
##mahu
Märt
kost
liini
pilgu
##reformi
Londoni
pankroti
roheline
##vaga
##põhja
##komple
Rahva
lasku
parimaks
##tos
##reda
kahes
sügav
jõudsid
taotlus
aktsepte
tegemata
eesmärgil
Ts
##eeni
##dusse
##palga
müüd
vaes
osaks
poolf
vahelt
eeskätt
kollektiiv
##dit
##iiv
##erimis
paras
pikad
saabunud
kolmandaks
kipub
loengu
heliloo
muutuda
##alga
##tõus
##kunst
##gusest
pulma
##kaamera
##teeritud
säilinud
läheduses
ülesandeks
##jaam
Aare
väitel
valgust
mõnevõrra
personali
teadmiste
##idetakse
##likumalt
sellegi
ok
##tera
silla
##jõudude
Katrin
narkoo
ehitust
linnavolikogu
##sünd
isu
risk
sihi
aitaks
motiva
juuksed
lahenda
päevaks
kodulehel
meiega
pronks
##ak
lähte
delega
##linnapea
rika
autod
lasknud
programme
Mas
moe
hapu
seatud
varian
kohtusse
##oss
##meeto
##sõnaga
kantud
kolmest
haiguste
tulemusel
registreeru
##ula
müüja
pidev
osakaal
kohtunik
rae
traa
hullem
mõnele
##festivali
kog
minule
##....
aptee
##teenistuse
kesklinna
##ney
##mustel
halda
sooju
loomise
taotleda
maakonnas
võimeline
riigieelarve
##ppel
meri
##juhtide
juunis
ütlema
suuremate
operatsiooni
##reeg
Lea
jäin
2001.
võims
##gor
##onär
peaministri
##bet
##õsa
sir
tõhusa
võtaks
müüakse
millegipärast
##anal
viisi
jõudsin
küsisin
senisest
Komisjoni
piirkonda
kategooria
##toot
foo
loa
Iiri
##plaani
##tiliselt
ülimalt
kriteeri
##kstud
jälje
##väärtus
üksteist
ml
##nult
loll
##omanik
Lasna
pilli
unenä
mehele
õpilane
mänginud
parkimis
##taat
saadi
finaal
väheneb
asjadest
vägivalla
##dile
eas
lõhe
sekundit
Sergei
korrek
kloo
maas
märki
kursuse
jätkusuut
kolmandat
##ling
sõr
Šve
seada
##projekt
hobuse
teadma
seisneb
##gratsiooni
##kilo
2,5
Emü
Alex
etapi
sõites
teistmoodi
85
ves
kehva
üldine
muudatused
##-12
##rahu
väit
##teadus
lootuse
järgmist
##laag
##liid
õigel
Pirita
olümpi
augusti
Aleksand
stipendi
kooskõlas
Am
Mai
##tavas
Isamaa
kõigist
leppida
erakorra
##kusest
purje
turundus
Ras
pisi
Linna
viies
skanda
veebruari
positsiooni
temperatuur
Ok
##rünna
##tõusu
pagu
ühend
koguda
teiselt
vähenenud
kiru
naka
##ühistu
joogi
litse
nendes
Tor
eelne
lamba
jõuavad
##udis
##tiivi
uuel
Kalle
maits
joosta
ootamatu
ül
##rdis
##taime
temp
muudetud
soovitud
lapsevanema
õp
uueks
ajavahe
direktori
ministeerium
pau
##isime
##liige
Kanada
kujunes
pooleli
põlevkivi
rahvastiku
##vanemad
##vahetuse
ehituse
nimetas
spordik
pakkumise
seadusega
%-
Hi
seksi
##meerikas
tundnud
esitamise
makstakse
Lõ
dial
nõrga
riided
finaali
pidades
stiilis
koheselt
korrusel
erinevatel
##dina
##mõist
##nurga
loeb
unika
pikkus
viitab
heade
istub
pikem
temale
suureneb
##võistluste
lavastaja
dokumendid
märku
hõbe
brone
demon
pedag
##ttepane
pühendatud
##lie
##lubis
mult
oskusi
harulda
retsepti
ringkonna
##ilid
##mmel
##lismi
lumi
##luseks
moodsa
treeni
hetkeks
kohtades
##mf
##bit
Bi
##fere
##suhe
ühed
##platsi
tööst
instru
õigeks
agressi
vanalinna
tunnustatud
##eksa
##idis
##jone
hõõ
isi
silm
tank
loodi
esindatud
asf
õmb
##raalia
andes
integ
loome
viinud
tühjaks
##14
##uge
##laga
eet
kitar
toodi
tööga
uuring
päevadel
tulemust
kurjategi
##õhu
##bane
##lari
Was
##ideti
lasi
puit
##likumad
asunud
kulude
küljes
##kõike
lenna
paksu
alusta
juhuks
kasutas
Helsingi
arengukava
##käe
##niir
##likumaks
##tseb
Bla
##jooni
laseb
arvelt
suurel
võimas
juhtimise
pöör
lolli
suuremaks
suurenenud
##biga
##ktne
##meele
Mark
tope
##tiivse
##mineeri
hakkan
istuda
seletada
ühesõnaga
õhtus
rekordi
diagnoosi
meeskonda
praegusel
teadmised
väiksemad
nendel
vahendas
statistika
##kg
##maat
vin
astme
kordi
lühid
mahtu
piina
Brüsse
mitmes
objektiiv
##rie
63
##ulga
kokk
putu
lugema
märgib
võimalusel
##niiril
plaat
tunned
muinasju
##-7
##deid
Eet
omast
uksed
versiooni
Fra
##telle
##lasega
pargi
toite
reformi
saavutamiseks
##loog
Kra
sorti
saadeti
kirjutama
Hor
Alla
1998.
Kohtla
ühendus
##menetluse
rääkides
majanduste
##tum
##ritest
graaf
aastad
moraal
funktsioon
##isis
##tasa
Vir
##torit
Ange
##ndatel
ruumis
standardi
##rohke
Raivo
kõnni
ostis
islami
Helsing
kaitstud
sedavõrd
õppekava
esimesest
##elus
##gilt
##ndel
##gelda
##kulud
kujuta
arutada
##lisatsiooni
kavandatud
seisukohta
rahvusvaheliste
##põh
##rõõ
0.
vot
##kreet
lund
lööb
kõrgus
vabaduse
##oor
##üksi
liin
Ansip
##lehtede
disain
kasutan
##nson
Ver
##duvad
haru
tapa
julgu
seast
võtke
lõplikult
fotod
Moskvas
##gb
>
##hur
##ndava
Sven
tüüp
sinuga
enesekind
haiglasse
##sip
juulis
aadress
haiglas
omamoodi
lähtuvalt
kontekstis
rooli
sirge
mehega
palume
põneva
kogemused
kokkulepe
järjekorras
sekka
seisis
kapitali
lühidalt
majapida
muudatusi
valimised
territooriumil
Iv
##talu
##nduda
.....
tegelevad
Pen
abiga
kuuga
ametlik
andmeil
siiamaani
likvideeri
180
##müügi
päevaga
omanikud
muudatuse
kerki
edukas
##võimalusi
arvestama
ennekõike
käitumine
##stasu
fraktsiooni
kuiv
käte
trii
##mbrini
Tanel
liiget
seljas
õnnetus
##ndamisega
päriselt
kirjanduse
võimaluste
igasuguseid
##reis
##võimet
2002.
topelt
tähendus
keskkooli
##aru
##rine
klo
tär
##halli
avati
mudel
hõlmab
kolleegid
loogiline
##võrk
1997.
teade
Aafrika
koguaeg
reeglid
tuhandeid
##kitud
toita
##tamises
heleda
seista
teemadel
viimases
poolteist
##tke
95
lohu
##stusse
model
mürgi
vette
##tavatele
lemmiku
märgata
tundmatu
##kuul
##tegevuse
mõistagi
lugupeetud
##00.
##oht
3000
faili
stiil
võtme
kliendid
soovinud
Jane
väge
##roonika
lootus
senise
sõprade
paljusid
##ümnaasiumi
konkurents
Kos
##mõtte
##maailm
märks
päästa
sotsia
tasuda
töörii
mõttetu
väljaand
suurepäraselt
Ben
##matuse
Putin
tabas
sagedamini
##võimu
noorsoo
seaduste
Läänemere
arvatakse
raamatute
sõltuvalt
##itt
##alal
##kude
##saar
turg
uuest
ühtki
magada
tundis
arstide
propaga
seminar
##vahendite
##ndal
##stet
udu
õieti
##lustele
##võrgust
teadvu
näitaja
suunata
##pärase
paraja
piimat
piires
kirjeldab
venelased
peatreener
##ell
##ldse
dik
rav
##firmad
tõusta
vähegi
muutusi
peaksime
taastada
alustanud
ek
##jagu
##paar
hõi
eelt
##nikule
määrab
raamatud
##ple
##ikku
##päri
##lasel
omaks
Michael
saavutas
##-8
##hud
##ngut
Ban
##insus
##tõrje
buss
##ktoris
##lusele
Portuga
eesi
veere
anonüü
lagune
ringis
toovad
järgneb
rahulik
dokumente
igapäevaselt
heal
ideaalne
konsulta
Venemaale
töölepingu
##fti
##taan
Üle
nõrk
table
liidus
sõprus
hakkaks
##krim
##reen
##vine
peast
saadik
valguse
opositsiooni
##mk
64
##sama
sõnum
põhineb
eesmärgid
Ele
##otsas
Egip
häire
kitse
külme
Iraagi
tohutu
Stockhol
vähendab
ülekaalu
kogunenud
klientidele
##cal
##cke
Vana
##hommik
1996.
loonud
ulatub
samasugune
##uter
fänn
##kraadi
##mängus
saali
ostnud
parimat
ülesandeid
##hnu
##mbe
##und
##kaga
##rich
##rõhk
astro
kapten
piisav
arvasin
kriminaa
uskumatu
nõusoleku
Aleksander
erinevatest
ajuti
leian
##kreetne
Jeesuse
panevad
Savisaare
##cs
##mw
##pai
99
##ktse
sub
##datud
Niko
võõr
silmis
lisandub
kommenteeri
##dro
##kari
##mõõt
##gevus
##külje
##semat
lend
##partei
suhteid
konserva
Inglismaa
##jõudu
##ndrik
##raine
##riiki
##siili
##eestis
##raatori
uurima
##lõu
##tif
Iva
##gudel
saabub
üritab
##lamu
##mari
##veste
Sepp
reage
isikud
järgneva
külastaja
##ehi
spi
##vajad
rööv
kulus
koduse
tulemas
asjakoha
unustada
üheskoos
pakkumine
Austraalia
seisukohalt
##pol
Id
##koosoleku
teadmata
toimusid
kokkuvõtte
Fi
käin
võtte
ajastu
##korralda
pikemat
muutused
perearst
kesklinnas
##nst
peit
sibu
##vamaks
soovite
ainuüksi
pensionär
##kõne
##eeris
##ikule
tung
fakti
hämma
rajal
tõlki
eespool
remondi
toetavad
tüdrukud
uuringud
##vöö
##ussi
annan
juhtima
kuulutus
mars
##meelne
2017.
maante
analüüs
liikmeks
saadakse
ametnikud
kolmandal
liitumine
##sat
Sp
düna
kabine
pääses
kogemust
igasugune
võistlust
Prantsusmaal
##õig
Ep
nü
laske
huvitab
lähemale
kandidaadi
lennujaama
##aari
Töö
##.2013
##lapse
##suste
avas
rajada
õpetada
depressi
vägivald
läbipaist
struktuur
stsenaari
tõenäosusega
##-15
##ürii
kõht
hoidu
##ttevõtte
lahendust
politsein
##büü
it
##onil
##rikka
##veres
tape
##stavat
kanti
##statava
keemia
soojus
puhtalt
mängivad
võimaliku
põhjustada
##-200
peh
##toori
##htudes
##gentuur
sõnade
silmaga
tihedalt
kohustuslik
Sy
gi
You
selg
süsi
##tusena
karta
kompro
suudaks
pealkiri
liikumist
##happe
##firmade
Leedus
kuuluv
pindala
tarbeks
rahvaste
##laulu
asjaga
esimeseks
põlvkonna
tihtipeale
sö
##vära
lät
mitut
start
##juhataja
soovime
meenutas
tööpäeva
##fes
##late
mase
teene
koerad
##tulundus
mineviku
kvalifika
##99
##ami
Kru
nähta
##asutuste
peatege
##protsendi
põhjendatud
##imad
Char
lehed
punase
##ndan
##nimi
##puna
5000
häbe
pipar
##teenuse
ilusat
lükata
pimeda
jalutus
kallale
##kindlustus
kohtumise
##ono
##pargi
hääli
hüppe
Washing
organismi
##vd
##dur
##sten
elua
külg
##lisust
##ettevõte
võtsime
armastust
tegevuste
varustatud
abilinnapea
##nnil
jään
mehel
liikus
kuskile
otsused
##davad
ägeda
tunnis
##turniiri
tugevad
tuleneb
arvamuse
kalendri
##õpp
20-
hoidma
märksõna
soovitas
inimesega
kirjutasin
Ö
Bro
##netle
kallid
pääseb
Johannes
Kristuse
maksimaalselt
Oja
Pre
hüü
link
teos
vajalikuks
##dek
##inõu
ihu
##setes
2003
Kuus
eluga
kiitis
garante
intelli
korruse
oskavad
##35
##mõiste
osalema
saamise
leidsime
##struktuuri
avastasin
küsimuste
paratamatult
##ska
infos
pälvis
regule
lugemine
66
##lõunal
##stahes
nähtu
tõstab
menetlus
mõnusalt
rahulole
kirjeldatud
##kl
krõ
püh
muul
##alisti
ketta
huvita
tähtaeg
jõudsime
##alle
##pisi
Bre
Tho
koka
Flora
püüda
initsi
ümbrus
reaalne
soovita
##kao
##itused
##nduseks
jookseb
aeglaselt
küsimuses
motiveeri
omavalits
eesmärkide
koosseisus
konverentsil
##tun
##võitu
avab
vare
##jaamas
##raabia
kasum
tõrju
mõnigi
kilomeet
restoran
eemaldada
tervisele
toimetaja
tv
##jäär
700
Air
tõr
##kelda
##lisena
heina
paista
tähelda
##tase
äge
Paide
müüki
Belgia
materi
linnast
menetle
erinevus
##dy
Chi
bet
kop
ske
##delda
##iniga
Eplo
lauda
hiline
taustal
Valgevene
##piiri
Usas
kaeb
surm
##lasena
hukkus
teadis
##direktor
mobiili
muinsus
katastroo
arendamise
kr
man
energe
kallim
mängud
ametiko
mitmekülg
##uma
##kiir
2-3
Gar
ahi
atm
reo
lehel
liiki
##lamendi
jaheda
ütlesid
ettekand
lasteaeda
peamiseks
kutsutakse
Ves
##idelt
rapu
õppis
##mängude
selliselt
suurusega
vastuseid
probleemiks
lossi
proua
abiellu
muutnud
istungil
Kuressaare
ettevõtjate
##-20
Bor
Süü
kohv
Kallas
illust
konven
otsuste
materjal
##kan
##ssid
##tentsi
hilja
tähte
möödus
viskas
elukoha
kvartali
teinekord
majanduskasvu
##of
õrn
lagu
vande
bioloogi
õpilastele
kond
Energia
naljakas
toodetud
##ty
##piga
Eel
Tru
ühiselt
##õõ
##elis
##ongi
##võrgu
##tional
##vitami
püüavad
saadetakse
##ml
##den
##jed
inglis
kolmel
perena
huvitavat
kohtumist
dokumentide
##rsil
##likalt
elame
##stavalt
keerata
teadaole
paralleel
##kite
##emist
##jadest
asuda
sidru
##korruse
tehase
julgelt
lahkunud
sündmuste
tegevused
##ikõ
!)
Kun
##mater
moto
omab
1995.
keska
mõõde
Willia
jäädvu
lavale
##päraselt
ajaloos
kohalikku
ülemineku
##puhk
01.
2001
rand
firmad
puuvil
märkida
sealjuures
Eu
Edu
solva
loetle
rekord
transi
tuuakse
saavutanud
##peo
##tsü
õõ
Pet
määrus
##lisemaks
töövõime
puudumine
rekonstru
##nude
##rdil
vak
2002
draa
astub
jagab
##võistlus
viimist
##akadeemia
sularaha
kohustatud
organiseeri
Koo
Inter
plast
porga
püüdis
sümpto
ookeani
valuuta
vahendid
koordinaa
sõltumatu
##hik
Kii
kaud
ennem
rahval
##kandinaa
eesmärgiga
tuvastamata
investeeringute
##-11
##lale
Tre
ana
tekke
tulin
lähtudes
keskkonda
tekitanud
##võistlustel
##22
##git
##tlik
subje
huvide
pärineb
õigused
aseesime
laiemalt
lühikese
tegevusi
##isku
##toas
##vesi
Publi
##kantsler
töötasu
ametnike
märganud
pääsenud
niisugune
kvaliteeti
##ito
##lind
##pensi
Madis
atmosf
kaupade
teistega
direktiivi
##kom
##tao
kalu
neut
hõiva
##kirjade
##virumaa
paigas
intervjuu
riigikaitse
##.2.
##blit
Vane
jaksa
osavõ
finant
kukkunud
avaldanud
tegemisel
jaanuarist
##suhte
##valda
palub
seadu
vaade
##tifitse
metalli
spetsii
vanasti
tähendas
otsustati
protokolli
##ikad
##juhe
Star
##dusega
##susele
##tsuste
Micro
kasti
nähes
quote
müüdud
ütleks
sügavalt
riigikogus
põi
Äri
##varju
kard
1990.
panid
##nide
des
##rikku
Meelis
Hendrik
ehitati
kontori
käitumist
teadlaste
regulaarselt
##ok
##bist
##fond
##park
##lingu
##värvi
elan
bändi
erand
ostja
imetle
kiiret
pöördus
vajalikke
##95
Dan
##likes
##samas
##kaalus
pinda
silme
visata
kujuneb
pankade
järjepide
##jõe
her
ööl
##.2017
filt
andke
veres
meetodi
tutvustada
##rake
küüs
logo
George
Reuter
temalt
tasapisi
põhjustab
##temperatuur
Pei
ork
roni
Rooma
mahla
tamme
tungi
allika
kahele
abielus
esitama
seesama
üksikas
poliitiku
##ny
##egi
##indi
##mmid
##inuks
##kunsti
keelu
hoolikalt
proovinud
maailmasõja
##98
##öi
laen
verd
kande
nälja
##preside
järeld
viivad
esitatakse
##ktri
sar
##nemata
hanki
inspe
kaitseb
lahkuda
##näi
##nski
vöö
üür
##lange
majja
tehke
juustu
pakume
tollal
tulene
tööturu
##tsialisti
##laps
##likuma
seade
ametis
euroopa
omadused
vastasel
kummaline
olukorrast
võimaldavad
aias
värk
kanga
laagri
Hollandi
ministri
seisukoht
tegutsenud
Mü
##laud
##ntra
##tähe
õpib
noorem
##stustest
Ann
rehv
ülese
muudkui
töötama
esinenud
riigikontro
##...]
##mori
aruande
tähtsust
##hnika
mõtleb
##tavatest
avalike
ekraani
kuulsin
kunstniku
oodatakse
teatavasti
##inat
##tube
vel
##hitus
##onist
##vades
Saku
kuum
saia
toel
ametnik
kirjutan
räägitud
külastada
peaminist
##löö
Wi
Seb
Van
##nnete
juhtiv
kandma
algavad
ohvitse
paistis
vaktsin
parlament
·
##hõi
##nut
##teha
rul
##induse
##nnikul
pesta
teles
##eringud
kanali
käidud
lennuk
õigusi
##sekretär
esikoha
teaduse
üksinda
ainulaad
mos
##tootja
kuuse
##päevaks
purjus
ühistu
teadlik
kaitseks
korraldas
soovitada
Gi
Era
baas
kudu
##udesse
täpne
langus
poiste
kümneid
ettevõttes
gt
##maga
##poeg
##maaeg
##ühing
##aanias
nulli
valve
Rahvus
räägin
aegadel
valikut
eluaasta
universu
valimisi
koordineeri
##oru
##see
rö
##enti
##kaupa
Must
##kirjas
poega
##stituut
keeldus
##ndamisele
positiivse
kommentaarid
##cy
##bot
ik
##mbur
##mest
##rena
gri
hap
Jako
sööb
mures
riideid
suurest
elektrit
Peterburi
agressiiv
##cia
Vee
fol
##keste
maade
satub
rõhutab
Tartusse
konkreetne
Bb
##pers
Kur
##kohad
paav
kindlad
keskkond
kirjeldus
tekitatud
##dne
3-
##likel
##ruumis
piibli
kujutab
korruptsiooni
Ce
[/
##assi
##puude
vähene
püüdnud
##aastaselt
kusagilt
##teistkümne
keskmisest
##naha
City
ootas
##tööstuse
jooksis
küsitle
aktsiate
naistele
suurendab
instituudi
õe
##deni
##listeks
saarel
Pariisi
rajatud
kogemuse
põhjused
ühendada
igasuguse
##gno
##liis
App
Wor
##mmist
##seeru
pisa
nõudis
termin
õpingu
elaniku
foorumi
teatris
ettevõtluse
##bor
##inä
##oomi
##gaasi
##lisid
režii
sotsi
suisa
##dustele
eripära
##vahendeid
kompleks
mõjutavad
kehtestada
rüt
talvi
Eestil
isamaa
makstud
eesotsas
maksavad
kirjeldas
##tine
##duseks
##organi
talgu
eksper
##aastased
allpool
teeninud
vastupanu
spetsiaalselt
##täi
##etega
##selts
mäda
Lenna
loomi
Baltic
arengus
vanaisa
eluaseme
mitmekes
mittetulundus
polü
1992.
hooaeg
lähene
kohviku
korraldaja
sl
Asi
hüüd
mõrva
taset
##ndusele
lisainfo
valitseb
tegutseda
juhuslikult
##tter
##aegne
apel
kaldu
meili
žürii
jätkas
taimed
##________
eelneva
Ühendriikide
##tegu
Bal
geeni
näita
hirmus
pöörde
teisme
Brasiili
osalesid
täitmise
juhtimisel
ettepanekuid
##nki
Dr
Fe
##kune
Mare
põld
basse
ülest
täidab
võõras
kutsuti
pressik
väljast
vaadelda
erakondade
##sad
##tses
rohu
##lemist
marja
ravik
võõru
kaotus
peatus
pikema
raskusi
rohelise
sihtasutuse
konkreetselt
##klo
Irl
igat
joon
süüd
##aastal
##nditest
hambad
saatel
soodus
politseia
ae
##toit
##valik
vaht
##stajaid
Andrei
Gruusia
##fra
##sur
Delfi
sõnumi
välise
teemaks
parimaid
soovitaks
näri
ulme
käive
liider
viisid
kontakti
postitus
##hhi
Rt
Dia
Vab
##jatelt
##kordse
hoogu
peene
kardan
erakond
kavanda
tõestada
vaadanud
kohustusi
sotsiaalse
##oosi
Rai
inde
Silla
lahke
loosi
hambaar
##likkusest
armastab
väärtust
tekitavad
vajalikku
tingimuste
##idul
##lata
##õitu
##tlust
ping
kurat
ühist
paljus
##ameerika
küüslau
foorumis
tutvustab
##stee
Sam
##vusse
ausa
##semaid
sõpru
ühegi
leiate
võidelda
järjekordne
Err
pass
##haigla
1994.
mahus
teoks
arutel
provin
komitee
viimaks
##uuringute
Päevaleht
täitmiseks
][
##ndini
##vates
immuu
peaga
näiteid
suurust
proovisin
soovitakse
muinsuskaitse
##ls
##mõel
1999
hiig
venti
##erimist
Ungari
issand
plaanid
##kampaania
korteris
protesti
vajalike
tegelased
revolutsiooni
##kohe
##ntne
##oolis
Piret
hilis
korri
kuumu
rendi
##päeviti
grilli
mõistus
liiklusõnne
##oa
##ride
##kkide
##jooksu
kehve
leiva
panka
objekt
ametist
armasta
maastik
nõuavad
paremal
nimekiri
patsiendi
töötajaid
##mika
##alust
[...]
beebi
neilt
kogudu
nõustu
kuuenda
pooleks
kuulutas
tunnistama
ale
toetas
tagatud
koolides
ettevõtjad
##heit
##hüvi
kää
Heli
luksus
müügil
jalakäi
kulunud
meedias
esinevad
Riigikogu
huvitavaid
"?
##lask
##tensi
##htinud
##oonist
paigal
hoonete
peegelda
Aleksandr
reaktsioon
##seni
##elukoht
kordagi
##gs
##ator
läh
kõve
mand
##dusest
##preemia
haiget
spetsia
esimeste
kuulunud
sõnadega
filosoofia
materjalid
##kia
##lam
##miini
Arvo
##muselt
vabaks
intelle
##teenistus
kõikides
põhjenda
teadmine
materjale
##fon
##kaup
##prin
##rõhu
hiil
mägi
kassa
nauti
kõikidel
õhtuleht
##positsioon
korraldus
teadlikult
meelelahutus
tegelikkuses
##jalg
##vorm
1990
arvele
kaotab
toimuma
otsustasime
##itõ
##sepp
Tai
##ikuga
##tsent
labo
kanal
tormi
viivi
##teerida
leviku
tegude
perearsti
tagamiseks
##arja
##toidu
karva
looja
täitma
ületab
linnale
päevade
peamised
füüsilise
##ild
Bri
Time
auru
haju
pilk
##raapia
avaneb
nähtus
vaidlu
põhiline
individuaal
##hat
##rre
##ller
Tur
ööd
##istes
hisp
ratsa
Viktor
kompete
korvpal
okupatsiooni
pui
Mägi
kipuvad
koolist
pidasid
leidmine
printsii
tulumaks
Hd
##saja
##chard
##tisti
pähk
isikut
lähedale
##liseeritud
67
af
##ttas
##otsuse
suust
##12.2012
August
saades
Londonis
liiguvad
arendamine
##cd
##iet
##tiit
Eva
põl
##masin
demo
hala
toor
seisus
kogunud
otsusega
täiskasvanute
Cd
##hkur
##isal
Oli
hall
häir
teagi
tohib
asetäit
minutil
valinud
tegelenud
vahendite
vigastada
sotsiaalmeedias
##tp
##hei
:-
plo
Bulga
iseära
režiss
platvor
muutmine
kannatada
raamatust
##udo
argi
##tajale
metal
kohalt
piirid
kartuli
madalam
otsivad
juhendaja
sõltumata
brä
hot
##häire
tõlgi
leidma
mujalt
koostis
käesolev
seaduseel
postitatud
märgatavalt
##96
72
##ehhi
##seen
rock
##lehele
ilmaga
sõitja
Hiiumaa
paanika
hädavaja
maratoni
signaali
heategevus
##hina
##ralli
koma
##stanis
magne
##seerida
Peipsi
arusaam
detaili
läbinud
oskuste
##verentsil
vastuolu
võimalikud
füüsiliselt
##bul
lõd
diskus
haridu
arvutis
asutuse
numbrid
terveks
vestlus
hinnatud
kehtivad
##raamatukogu
planeeringu
##keti
ses
kurna
lähed
##mängija
jõudma
tsiviil
raseduse
narkootiku
##tk
##fun
##mehi
##tare
Lin
##.2015
##tungi
absu
korre
nooru
koerte
##vanemate
##ühingute
autosid
kosmose
pidurda
ranniku
ajaloost
kroonini
divide
kõrged
teater
üritas
pakkunud
##pruu
3-4
Cor
Max
iid
kere
##meenia
Liina
esita
võlgu
koopia
suundu
eneseta
hakkame
võrdselt
kandidaat
##nad
Qu
##blid
##stika
##õhtul
##gudest
punkte
asjadega
hammaste
sõbralik
nimekirjas
del
Raul
emme
kato
##tajaks
hädas
kalju
lõhku
keelde
romaani
Kristina
Inglismaal
tegutsevad
##reo
##rež
Im
##kama
##randi
noort
hõbeda
reegli
##virumaal
ühtse
evange
kestis
mööbli
maksimu
olevaid
õpilase
keskenduda
käesoleval
kihel
küpsi
targe
piiril
analoog
kergejõu
sõpradega
Moo
Sky
klõ
kaad
uude
ohver
##dustest
teadust
väljaku
püütakse
meeldinud
pressikon
##sõja
Aru
aje
##idile
lõik
püüan
viigi
##tööstus
##korralduse
kohustused
##roma
188
rõi
otsin
Vanemu
mujale
häälega
Estonian
ettekuju
tootmine
läbirääkimisi
##gan
62
Ac
##aala
##umid
Sar
ile
##telda
baar
gaas
lingi
valib
panuse
##--------
ebakind
kombina
plaanib
tugevda
tuttavad
virtuaal
##neri
##tuma
##alade
isee
Õhtu
fikse
nimeks
sporti
pakkuma
punktis
kümmekond
hulgaliselt
##uno
2-
:(
Ny
##kovi
##nalt
onu
veen
Mihha
kants
lõnga
kolled
voorus
eksiste
elukaas
populaarne
projektide
tn
##ikuu
apa
##stant
pind
filme
maast
##10.2012
humani
tutvus
ajaleht
romanti
maailmast
##oksi
##orda
Kaja
radi
Kirja
tooma
unusta
kohtuda
käsitsi
finaalis
##05
##eno
##rühm
Kel
kapo
##metega
##ratiiv
põõsa
ratas
hirmsa
rahast
initsia
naisele
universa
Ameerikas
##ug
##hea
Mk
##pala
jäli
jalgu
kaane
paisu
jurist
rumala
valima
võidab
kuuluva
avatakse
missiooni
mitmekesi
positsioon
##pind
##koori
##nnise
laev
ülee
sedasi
üksiku
Publica
kiiruse
kokkuleppele
##php
").
auk
hüpo
bakte
##investe
ideaal
pealtnä
uuendus
vaheldu
personaal
68
0,5
Eri
##seltsi
##lustega
perega
teenus
ütleme
seiklus
parimate
vastused
juhtimine
kogukonna
venelaste
korraldajad
##inspektsiooni
innovatsiooni
sellegipoolest
##/3
##tru
Mil
hin
tõid
##tuaalne
sõidavad
olenemata
##gnet
##vormi
1500
##reklaa
Jaani
autasu
muutis
äärmus
##üsteemis
kutsika
räägiti
ületada
hommikus
tähistab
varakult
õppejõud
lehekülje
ingliskeel
vastutustu
##wi
##kru
Ana
Arn
##suses
praa
alust
publik
rõõmus
##vahendid
hom
ora
##onald
Vahe
karm
kihi
suhu
##kohast
naistel
kogemuste
õigustatud
Keskerakond
~
##nja
##viks
Bir
##opera
##piira
Dani
Stra
ööbi
##mängud
käsik
vooru
kitsas
järgnes
võidakse
võimalike
##gos
##kei
On
##tsed
Kla
Pul
##muuda
Swed
näis
sank
rubla
##aegselt
üleand
nimetati
distantsi
osalemine
##mmar
Pol
##raalne
veter
jättes
##päevadel
Itaalias
teemasid
vastutab
küsimustes
##organisatsiooni
##oodu
Eur
##kusse
##öelda
eluks
juhtide
##ettevõtte
osalejad
vastutust
##hoi
##sale
##krooni
diiva
käiku
kumbki
aeglase
arvesta
kulusid
algatatud
kodanikud
saavutatud
kaitseliidu
kommentaare
##esu
##kõr
Karu
diri
lasti
mõtis
pasta
teose
tuled
küsima
tugevat
üksikud
äripäeva
prioritee
leidmiseks
##ndra
##ütle
Bmw
Kai
Sig
##ksite
leib
saatnud
toimuva
õppetöö
Mustamäe
maanteel
tellitud
##08
##bar
##hil
Tuu
metood
##liseerida
algusega
hindamise
spetsiifi
esmaspäeva
##hõ
Sü
##hari
##lena
##ööde
##monti
Hein
andmine
avaldus
festival
kõrgkooli
maksumaksja
poliitikute
##rö
##cks
##kos
""
##orra
joone
küsin
turgu
lõigata
meestele
minutiga
##97
\
##hit
ex
Ali
Pille
alaea
kaine
leiba
pilve
turis
##hindade
Richard
keskuses
tingimata
iseseisvalt
Che
##paiste
briti
baasil
juhtum
jagatud
oskused
pelgalt
tervelt
tugevam
asendada
kujutada
tänaseni
järjekind
neljapäeva
##lemis
medi
peen
orkest
sünnib
üldise
ekspone
maakond
meestel
serveeri
uurimise
iseloomustab
##kott
##tikud
mahub
müüdi
põlema
hoiavad
kokkupõ
põhjuse
samaaeg
pealtvaa
poliitik
vastuvõtu
töötukassa
liikmesriik
##kasv
##kihi
##neti
##ning
Hit
pet
##torid
Carl
rohk
õlut
tõest
##tifikaa
erilise
jooksma
saladus
ülikool
kriminaalas
##03
Wal
##järje
##matel
loovu
sõitu
Putini
kehtima
saamine
laekunud
optimist
##spetsialist
##jee
##uju
##inal
##king
##haige
##grammi
##kulude
täida
vaiki
asenda
##kuulutus
vähenes
kõrvalda
külaline
ravimite
seadused
keskpanga
kommenteerida
##que
##doku
##udid
Can
##isõnu
Raud
bana
mega
tuld
kapsa
resta
täies
remont
##stustega
avaldab
lõpetab
lühiaja
tänulik
Skandinaa
lasteaias
politseinik
##tka
en
miili
keskse
magusa
legenda
põhjustatud
##ws
##inõ
##pär
Fu
Bur
##massi
##tisse
mäge
##tamatu
defin
korid
tühje
mingis
vaimse
õpetab
asendus
sõitsin
määratakse
kasutamisel
73
ir
##rdab
uks
lehma
senine
tavali
alistas
laialda
muuseas
väravat
paremale
mõningaid
tegevjuht
ülesannete
##zu
eht
rub
##kkude
##meeter
täite
enamat
tegelt
andmise
paremaid
kirjaniku
osalejate
restorani
turvalisuse
korraldatakse
##lb
at
##lille
##ppide
##stumis
kolla
kannavad
käitumise
lähenemine
##üli
##inen
##turg
##mikku
Hans
orja
##kriisi
Triin
perele
starti
Soomest
esimesi
sarnast
taaskord
artikleid
jagatakse
loomiseks
pealinnas
suhtumist
paigaldada
valitsusele
Ly
ego
tõo
##öödia
Erki
immi
1993.
arvad
esineda
erakonda
iseseisvuse
186
jut
uima
##matele
rahaga
sedagi
ülikoo
##haiguste
liitrit
uurinud
eraldatud
kompromis
inimõiguste
funktsionaal
##aale
##näär
##kuula
omalt
tulude
valged
vedada
hoolega
kaaluda
taktika
tänasel
vastama
peremees
vaatamas
##mude
Ivo
##hinnad
sööda
kasumi
tööhõi
ülesse
ülestõ
Võrumaa
kasumit
saamist
teadsin
##korraldus
leitakse
tooraine
tegutsema
valdkonda
igasugused
##tol
##teeti
##võitja
peate
massaa
ratast
taimede
Lasnamäe
mängijad
valguses
Saaremaal
kõrgemale
perspektiivis
bü
##rant
süle
täiu
mosle
Alekse
teenib
tõstis
ameerika
veelkord
külalised
teenistus
vastutuse
kättesaadav
suurepärase
##car
Ole
##erisid
##seadust
läheme
transpor
füüsiline
kolmandiku
paragrahvi
##**
##näit
Ema
##meelt
##ppima
andu
õppu
kroon
lõige
pange
viker
##muuseum
Viimsi
kaduma
kiirem
loobus
remonti
tehnilise
koosolekul
mus
##kavad
põru
Sirje
ohutu
temal
loomaa
ühendab
kommerts
väärtuse
vabandust
vastuseks
realiseeri
Ada
moder
hindab
paremp
samast
tõmbab
korralduse
tähenduses
##75
rin
ult
##aegse
##ineid
mõnu
tiit
tädi
ränna
##ptsioon
anname
blogis
prilli
prokur
autorid
peavalu
lugupida
registre
Reformierakond
ajakirjanduses
pop
##nitsi
##usasu
mono
lõhke
terav
toeta
aastaa
tänavuse
Venemaalt
tutvustas
spetsialistid
##bik
##rni
##hääl
##.2008
null
nimetab
kogemata
seisukohast
Ot
##bile
Hil
##gesid
##imaks
inst
laud
garaa
juhtumi
mõistis
omanike
käsitleb
mistahes
##how
##idide
ajama
ravim
toota
##vastase
kõrgel
puudega
varjatud
üleüldse
propaganda
puudutavad
rent
Marek
niika
rannas
enamuse
laadida
parajasti
hinnatakse
##ort
##deta
##nnas
10-
Jakob
demonst
juhitud
maasika
hotellis
rahvusliku
ettevõtteid
internetist
be
##mpii
"..
##vikku
eira
eral
kirg
luku
osal
##matest
mänge
sõlmida
tegelane
seisukohal
erakordselt
##92
##bü
##bama
##kont
##mbad
nul
vol
liis
tappa
andeks
läbida
##maailmas
jumalat
konkurss
Facebooki
üleskutse
##nau
##ooti
Püha
park
näoga
kolmes
aastail
kaasneb
paljudest
Ülikoolis
intervjuus
Ttü
mah
##ksuse
##pidaja
##puudus
hammu
müsti
Hannes
rahulolu
tohutult
õigemini
ümbruses
valitakse
töötajatele
74
##eele
##ppus
##rias
toom
Keila
ostab
instal
kohvik
minekut
töökohta
##tentsiaali
##oja
##enko
##stur
Evej
psüü
pikki
niiske
sinine
millestki
##mana
##mati
ehte
kõrv
hüdro
keeldu
kõnele
maksude
mõistuse
Mag
##mööda
raam
##vahend
küber
tegija
piltide
uuringute
##ces
##röö
##pead
##kommu
##ksime
pesi
kriit
suuru
##ntselei
Arnold
kerkis
laekus
pikaks
õhtuti
Baltiku
juubeli
lisades
näitama
rünnaku
koostada
konkursil
##''
##idil
##pper
110
ima
##pildi
##produ
higi
väära
kasvama
vältimiseks
##32
##wit
##kaud
##stid
Vär
Salu
hanke
lihas
loetud
nähtav
domineeri
kliendile
lahendused
elektroonika
pärastlõunal
fu
##tiin
##ukse
Anti
kuradi
puhata
kahetse
pühendu
tuleval
lõpetamist
##yer
##uudi
Bru
##rajal
##siste
##stule
käik
Kauba
dokto
kõndi
piire
aknast
napilt
psühhi
sunnib
vastane
Läänemaa
##tena
müüb
järelda
kalline
suhtlus
tänases
praeguses
rekonstrueeri
läbirääkimiste
##üür
##toru
Phi
##pilli
##valiku
1991.
sümbo
kahtlus
kindlat
seletus
silmade
stuudio
liikmeid
sünnitus
##baas
Tom
kiht
laiu
vein
näete
röövi
##andmete
üritan
eestlasi
magistri
paigaldatud
##!!
##isev
##komb
##tisi
##htude
##meeni
määri
nägid
##mootori
grammi
hoolde
kliente
kannatab
kliiniku
analüüsida
võistluste
ettepanekud
koostööpartne
##wn
##orite
##stuja
##ndamis
jõust
löönud
mainis
niipea
paradi
privaa
täiega
tõmbas
##maatiline
linnades
toitumis
põllumajanduse
##ham
##raan
õnn
koti
Aasia
mulla
õiged
##itsioon
kohaga
lastud
lauale
pakuti
saarte
tõelise
vallavanem
##rak
##seb
##vab
Sk
##isas
##pert
##ross
##selu
pir
##vesse
tsik
##oodete
##stavaid
lendas
miinus
muutma
omandi
Lennart
kõrgelt
uudiseid
vähemasti
Hansapanga
##ikk
##let
##geen
##piks
##sari
Nee
Tam
##mõtle
##olust
Laar
Kaido
pudeli
mehhanis
tänavale
sündmused
##fer
muda
##lustes
järsu
taimi
ühesu
avastas
kasvada
asutatud
käitumis
puuetega
majanduslikult
##06
##edi
käs
Igor
skul
##reerib
lausu
vinge
vähese
järeltu
alustati
vastupid
huvitavad
##ano
##stap
##mikul
##visid
Narvas
eksami
metall
mõnest
##perioodil
tingimusi
televisiooni
läbirääkimised
5-
##mõju
##kustes
##tsiona
patri
##vastane
Jürgen
hakkad
kaalus
köögis
##aastaste
olemine
südames
eesmärke
kõrgemal
lepingut
prokurat
kinnitust
põhjendas
traditsioon
võimalikuks
maailmameistri
##ive
98
##gina
##muna
https
tassi
##materja
astunud
hooaega
võõrsil
Austraali
##õdu
?)
kott
aeglu
hindu
sõlmis
Microso
naisega
pikkune
liikmesriigid
##way
##foni
##täna
##ction
##mbrid
Georg
märke
mõjus
tehta
mõtles
tuttava
lugemist
soovitusi
staadioni
##pg
##rum
##ume
Ps
##htis
##laev
##vedu
##ward
130
eli
Ülo
eris
harm
keis
ümar
##läheda
igave
katta
nojah
koguses
inimesest
##här
##pas
tö
üla
seene
suund
eetika
jagune
##hommikul
elementa
seadmete
teostada
kinnitavad
maailmavaa
tulemusega
##ons
##pata
##ppis
##õitja
raua
##tulnud
Jaapa
Raadi
vaevu
peitub
asutaja
terrori
juhtinud
proovile
lisatakse
välistatud
peadirektor
78
##diku
Jev
##veerida
kohuse
kostüü
suurenes
konflikti
võistkond
juurdepääsu
##pit
##vili
jõgi
pigi
vili
##ndajad
nahale
radika
##luu
vs
Bos
bra
##forma
emale
##mistule
hobune
tellis
nõudeid
tsitaat
õpilasi
##valdkonna
muudavad
varianti
intellige
valmistamine
##nismi
ekse
huve
riiu
Ülle
##kultuur
erineb
pangad
summas
ühiste
Parlamendi
otsustasid
##100
##cher
##euro
##gene
##vool
##nikku
hooga
juudi
##misväär
ekstra
õpilas
arhitekt
allapoole
järgnevad
lemmikloo
meenutada
suurimaks
##mps
ob
##tate
kukub
leedu
nendi
õhtuks
Reuters
munitsi
ekskursi
regiooni
rääkisid
pressitea
soovitame
tulekahju
vastuolus
##zh
##tset
##väli
##assaa
minek
muust
##paraadi
hoidis
##raamatus
rahvali
võrdlus
tunduvad
külaliste
tõenäosus
ajakirjanduse
##65
##pho
##vae
##lini
##mart
##teta
##vari
Pil
##sõbra
##tarvi
järk
##matuid
##õigust
jahtu
asuvas
liidri
teleka
vaikne
võistlusel
My
Kle
Lar
##märki
dist
puht
puid
Toivo
lasin
rattu
suunda
kuulama
mõeldes
soetada
toetama
##juhtimise
riikidest
päevatoimetaja
##adu
ahe
fond
föde
lõhu
neti
jooga
käimas
sügise
##kohustus
##otstarbe
tunduda
paarkümmend
peatoimetaja
##ere
##idiga
Clin
fini
okei
piim
raiu
istuma
sammud
Nikolai
kuriteo
saatuse
Äripäev
Põhjamaade
koostamisel
tingimustel
õhutemperatuur
am
##gata
##järv
##lism
##onal
Min
amb
fik
mnt
##lauda
Lemb
koduma
meetod
segada
totaal
piiskop
kahtlust
Kristiina
emotsioone
uudiskirjaga
eru
ron
##inter
kalo
Laura
rapor
aruand
intellek
möödudes
ajutiselt
teistsugune
##).
##cti
mõr
Kaar
seab
veer
Ander
heita
lendu
tulen
Hiinas
toodet
kaitses
reeglite
asetäitja
fotograaf
kohustuse
kujundada
koostamise
##bil
monu
plaad
tükki
vaenu
kohtub
##ajakirja
käituda
paranda
tundeid
sekundiga
fraktsioon
motivatsiooni
##tet
Blu
James
meres
Tartust
nimetus
punktid
üleeile
puudujää
reegleid
väljapane
materjalide
##09
##gua
##deri
##plaat
ting
##majade
##usalda
jaama
reisik
##meelselt
eelpool
otseses
tegelda
vaheline
kolmapäeva
tagantjärele
rahvusvahelisel
##tuli
3,5
Liis
elul
##ktorid
Harry
aknad
maksnud
registri
tahtmist
asepreside
##cus
ur
##hele
##mass
##väga
##erima
##vakki
1997
aeda
##profes
arute
armastan
vahelise
ettekande
kohustuste
lõpetuseks
sotsiaalne
##ünd
##arma
##file
##stro
##isust
##tuuri
leiame
voodis
helistada
rahvusvahelist
Th
Ara
Rei
õie
hoog
##tunnet
Klubi
stabi
sukel
##asutuse
koondi
moleku
tahate
uutele
Liiduga
värsket
kokkuvõte
arvestuses
kasutamata
parandamiseks
##yle
mask
##haaval
kõiku
majad
mõõta
absurd
ebaõig
##toloogia
Mihhail
suurele
kulutada
seminari
##poliitikat
Venemaaga
korralikku
funktsiooni
ladu
##poliit
juurd
logist
manipu
resolu
kõigele
puudust
kahekümne
iseseisvus
Spa
##hange
lipp
##hoidja
##liigas
Apple
paroo
medali
vanemaid
eeskujuks
määrusega
olenevalt
samaaegselt
korraldamine
ühistranspordi
##44
##dar
–,
##ture
1998
maru
##klassis
meetmeid
ühiskonda
77
##gisi
##luge
900
Muu
##sport
geen
kehv
reit
kõlba
kaalub
firmade
kombeks
lähemal
mõistab
satelli
kinnitus
näitasid
osapoole
soovitav
töötatud
arusaadav
uudishimu
soovitatav
statistikaa
##df
##füü
##tale
##vett
End
##korea
##pinge
##taste
##lapsed
Rüütel
aineid
areneb
##vahetust
geneeti
kiirust
ressurs
arvamusi
lastakse
mugavalt
teenused
lehekülge
tippkohtu
##pib
76
##reli
nöö
Auto
luna
naas
näht
##grupis
##joneid
Stali
origin
##eritakse
Vabaduse
eelarvest
##alo
meh
Paet
adek
lõhn
rumal
tõlke
isikule
viienda
õpilast
helilooja
##hen
##paga
##telt
Tan
nõi
##pilti
##vused
eelis
riike
targa
viide
##stavate
arvate
lugude
valmib
lugemis
seisund
enampakku
ettevõtet
paigutada
##küü
Erik
kilp
küüni
üleli
hotell
saatja
orgaani
seisnud
tookord
tegevuses
tagasisidet
vaktsineeri
##jahu
##siks
160
##võidu
igno
karde
laula
##linnast
elasid
karjäär
platsil
##muuseumis
ametliku
krooniga
tänavune
puhastada
sissejuha
andmebaasi
võrdlemisi
protseduuri
üldkoosoleku
##etš
Rae
##fooru
Kult
kaub
võsa
õrna
doktor
võisid
määrati
pinnale
sõitsime
vaatavad
kasutasin
turvaline
dokumentaal
Hä
##esid
##poja
##rami
##vend
Fri
kod
1996
näkku
ideede
ohutus
valget
hoopiski
millises
valikuid
vastanud
liikmetele
infrastruktuuri
##lerii
##riide
este
olge
##taksid
Paldis
ainete
sinust
esitati
suhkrut
peatselt
tänasest
vastavat
##ministeeriumis
vah
lama
##jäänud
##madest
##stamas
esiko
uurib
istung
kätega
lükkas
olemus
püsima
kodumaa
kõrguse
südamest
küsitluse
##investeeringu
presidendiks
##naab
##reem
Den
##bitud
##tusta
##vadel
##nikuna
prefe
##uuringu
sobivat
sattusin
kiirusega
välismaale
vabatahtlikult
##lyw
##ksis
##tiim
Mäe
tah
##marja
##mitri
##võimal
huvid
online
psühho
##registri
enamiku
esindab
mängust
nimesid
eksperti
investeerida
##lika
Post
##ooniga
pilet
lõpule
kogudus
loomist
avalikus
organism
atraktiiv
poliitikas
silmapaist
tähtsusega
sy
##koer
Kin
asso
puur
soli
ratsu
väärib
puhkust
helistas
komplekt
toetuste
värskelt
arvestatud
##mud
Ap
##aalid
##majja
##mõõdu
##kurite
katab
osade
pakse
##nemisel
majast
mustad
kaitset
kindral
olemise
põnevat
tegijad
külastas
sündmusi
taotleja
tekkisid
hakkasime
kvalifitse
##rol
##duri
##imas
Ford
##maades
hiina
kopsu
valju
kolhoo
koolid
mõnede
##häälingu
koondis
prügika
väidavad
karistuse
võistlustel
##07
##üla
##best
mel
##summa
jõhvi
parkla
loodust
piirata
tahtsid
Harjumaa
ansambel
parandab
korterite
presidendivali
##93
##dja
##mmo
ša
##bust
##ääst
187
##idist
Rist
tart
Trans
euroo
venda
##stamises
kellelt
luuakse
seadnud
maksumus
põhjustas
reisijate
teineteise
##aaeg
keh
##paari
##teena
alam
müüs
Elisa
asula
multi
rajale
varaja
osapool
##ühiskonna
garantii
keerulisem
varasemast
liikmesriigi
##hed
kõnd
##tsinud
halja
naela
lõunas
hinnang
parempool
sellisest
viimaseks
kombineeri
riigikohtu
Gümnaasiumi
poliitilist
aastakümneid
seaduseelnõu
##isik
meedi
müüda
tiimi
Lembit
eestis
linnud
##üsteemide
loomisel
toimuval
kasutuses
maksuameti
##mbo
##rma
##sson
Blo
ref
you
##mates
##teele
ergu
pate
##tsevad
teatada
vastase
esindajate
lahenduste
näidatakse
politseile
inspiratsiooni
##efe
##pur
##ikon
##taot
##täis
Juu
bar
Airi
nüan
murra
nurka
tekiks
toimuv
pilguga
noormehe
kohalikke
kolmandas
tavalised
positiivset
gümnaasiumis
##meen
nel
Täna
deko
haua
segi
##medali
elava
indeks
plaane
refere
kollane
suudame
kuulusid
näitusel
lõpetades
praktikas
registreerimine
##olüm
##rohe
##oosse
show
##kohane
Levad
lenda
lõõga
staar
häirib
retsep
sümpaa
põletiku
taaskasu
##pm
##zo
##ffe
##hard
##võit
Ein
##mberg
ootus
siduda
autosse
koosseis
krediidi
korraldamise
##bur
##aria
##nuid
15-
pol
##steri
Maja
troo
##piisko
kemik
etapil
klubis
peaasi
loetelu
päikest
rääkisin
telekana
eksperdid
teisisõnu
##nuna
##poes
##rind
uhk
Peep
mõnd
sili
täitu
##kretäri
Eduard
rooste
##inimesed
erialal
hindade
lihtsad
puutunud
majandust
reformiera
kaitseminister
põllumajandust
101
##mänge
##toreid
Riias
juure
##vahendi
##tatsioon
alatead
praegugi
kasutatav
lapsepõlve
seisukohti
piirkondades
##85
##itna
##raid
##sori
idi
##kogud
##nisti
##refor
menu
talv
##raadio
jagub
randa
foorum
insene
sestap
sõjavä
viirus
võimule
juhtkond
rakendamise
kirjutatakse
##naal
##sala
arhe
hank
samme
tõele
##11.2012
juuste
lendab
pinnal
terved
usuvad
vaktsi
selleni
##vitamiini
optimaal
##94
See
##ikult
##nevat
aitama
filmid
omadusi
oodanud
arengule
kahtluse
väljakul
projektis
poliitiliste
##21
Cla
##alase
bänd
luure
töölt
võlga
tunnet
vennad
mängude
seisavad
perekonda
tuginedes
##ben
fe
##base
Ken
Sur
stimu
torni
trahv
koguse
majade
distsip
mõistes
peatada
raadios
saamata
##kuulutuse
eesmärki
tööhõive
uurimine
ürituste
fantaasia
väärtpaberi
##36
##yn
88
##rill
##stul
%).
##sener
Lepp
löögi
kaarti
palgad
Interna
veoauto
tegutses
miljoneid
kodulehelt
negatiivne
tegevusest
vanematele
konservatiiv
}
##hia
horm
imet
jahe
keld
reha
##aduste
##stesse
Vello
pakun
rakenda
kordades
kuritege
küsitakse
##arse
##hula
##raud
##mõisa
väed
##numbri
Vilni
kreem
rulli
##omanike
##õpetuse
poolaa
##liikmete
kaasata
süsives
austatud
elukutse
lõpptule
ametikoha
kaasaegse
kaugusele
šokolaadi
suursaadik
omavalitsused
##idas
plu
tuh
Elva
Helme
laual
valdkondades
informatsioon
registreerida
Mol
Schu
esse
norm
omas
patr
##vusele
repor
taust
termo
Dmitri
kriiti
pidime
osaleja
sõbrale
tabanud
võinuks
esimesele
ettevõtetele
kvaliteediga
##rdo
##burg
##ikaid
Mehh
kred
okse
sari
Frank
Veski
kaeba
kiita
sajab
õigem
##nditeen
gruppi
mõneks
restau
kaardil
Šveitsi
minnakse
teinetei
väravava
õnnetuse
Helsingis
esimestel
keskendub
kinnitanud
normaalselt
ajakirjanikud
Joh
##liikmed
kevade
lõplik
püsida
kristal
liikunud
kõikidest
gümnaasium
parlamendis
##aia
Bbc
Rmk
Vin
und
##valvu
"...
ordu
##küljel
ettea
neuro
kellaa
loovad
pargis
haritud
Berliini
kuupäeva
Viljandis
lahendamiseks
##gle
##suu
##vala
##alast
##mbrit
##valgu
unes
Merce
külva
lisaa
voola
##ohutuse
Horvaa
hammas
aitasid
hoidnud
immuuns
impordi
teisigi
jäätmete
lähistel
laiendada
Postimehele
arendamiseks
##meni
##binud
##režii
rikk
##alused
kommi
suits
suruda
##con
Los
Top
ante
prae
seos
itaal
##taljoni
ajavad
laulda
muusik
sisuga
sobiks
kõrvuti
mingite
ohtralt
tulebki
##piirkonna
aktsiisi
omandada
ülalpida
konkurent
majandusliku
##uk
##nno
##celona
##matise
saaja
ravida
vähesed
avastada
otsustus
vaadatud
##kaubanduse
)?
##istu
leh
##poest
##mistee
##rokraa
rühmi
jäädes
vaimne
lastest
teekond
vabaneda
üllatavalt
:))
Ran
Rus
##rgiat
Riho
Vähi
korp
lega
##sidest
Linda
põrgu
vanas
##stikust
Süüria
raiska
tervet
teemade
muudatus
Brüsselis
investeeringuid
##can
##riie
Art
Kgb
##kasse
hobi
irooni
paneks
sundis
numbrit
otsisin
spordis
valmistab
väärtuste
äriühingu
muudatuste
pikaajalise
##ilm
##jor
Cu
##siti
##ulta
pud
tüt
robo
##stunde
lõkke
norra
##statult
kõndis
targem
teiega
##toetuste
korrald
sekundi
veidike
lugemise
toetanud
kuninganna
varasemalt
30-
Kee
õla
manda
väldi
ühtlu
aladel
jalaga
kehtiv
nendib
ilusaid
##võimalused
kaugeltki
litsentsi
##kindlustuse
varjupaiga
##34
##bä
##dusa
##eedi
##vete
dee
##vatöö
liiv
samu
##ikesed
##nutest
kesta
minut
võtad
tublid
tõsise
majutus
käibemaks
##66
##ji
61
97
##mõte
##nast
##ugri
poi
##standa
##hinnaga
pealis
suguvõ
loobuma
passiiv
rattaga
seletab
juukseid
korterit
miinimum
televiis
Vanemuise
aktsionär
##erus
##kingi
##kirjel
##tantsu
andsin
bussis
kulgeb
postit
ressur
##väljakul
järgida
meetmed
##satsiooni
toimuvat
Barcelona
tüüpiline
ühenduste
moodustada
võimelised
septembrist
korraldamiseks
dž
##onni
1-2
Tel
##keeri
##tööde
koja
Metsa
Muuse
pingi
püsis
hiigel
määras
sattuda
kõrgusel
soomlased
kirjeldada
põhimõtted
##organisatsioon
##2-
##uga
##läbi
50-
##koera
##maili
##poiss
diab
Järve
katus
sätte
julgen
jagavad
keelest
paikneb
Pariisis
lahkumist
muretseda
##nce
##toor
ehe
##stuma
Luik
osalt
##punktis
autost
paneme
terava
videot
saaksin
##kaubandus
##leh
op
140
##kohas
##vabri
mait
tüki
##aluste
grupis
hiiglas
avalikku
lähedalt
millesse
kasvuhoone
käsitletakse
mobiiltelefoni
##naa
##kett
##tuha
Kati
Rain
##märgid
tuale
##mehhanis
pidavat
unistus
puhastus
riigipea
niisugust
süsteemis
sihtasutus
##far
##gon
##ken
Mac
Tali
pälv
##olekut
##tervis
Laine
hübri
riisi
##oloogid
nõunik
traagi
õpivad
mingist
Av
Tiiu
hulgi
lisan
seadi
jätsin
senini
elekter
linnade
tehniline
##eu
##ümb
Ak
##tüki
##.2016
gala
##mistes
##pilgul
jõuga
kuuli
paned
varga
õiges
jagama
laheda
rasked
rootsi
##ndustega
põnevaid
takistus
tuhanded
meeletult
rikkumise
eestlastele
positiivselt
##uum
hr
##klus
Sms
War
##ritel
##tüüpi
kerg
Poolas
Rüütli
liigas
meenub
tubaka
niikaua
portaali
vasakule
õppimine
advokaadi
paarikümne
siseminister
##poe
##busa
##ined
##susi
##ulge
Col
Põlt
emad
##meeskond
teemaga
peremehe
terrorist
tähendaks
Instituudi
##fis
##asju
##täie
Bas
##rossi
pöörd
soosi
puhkus
pühade
värvid
õpetus
globaal
kulutusi
paljuski
ehitamise
sertifikaa
toimetuleku
##ith
pae
##tmine
rasv
##seadme
rõiva
suhet
vedas
Kersti
sõnaga
süntee
viibis
fotosid
kohutav
muutuste
tuntakse
väärtused
##gy
96
Gps
##oride
1995
##haigus
kallu
pääsu
teave
vunda
##ktorite
Sander
suudan
keelata
poolele
##ttevõtete
väikeses
hindamine
käsitleda
normaalse
ülesanded
kompenseeri
rahastamise
investeeringud
valmistamiseks
69
##novi
##nurk
##ruto
##veer
##kolla
4000
kood
##paigas
Artur
tuuri
vingu
##teenist
Hollyw
õnnetu
piinlik
hukkunud
elanikkonna
##55
##bs
##rod
##bade
##gaas
##heli
##kons
Fie
##inaar
##sasti
kraad
##toetuse
Online
uksest
##seadmete
kandnud
maitsev
nähakse
seadmed
##reerimine
energias
hindamis
praegust
täieliku
tarbijate
järgnevalt
Tallinnasse
pikaajaline
##jäät
##käsi
##rate
Ant
vik
1994
Juha
Sara
raskus
diskrim
koosnev
muutuma
suutsin
välimus
kontsent
ettekirju
filosoofi
ajaloolise
##öl
##mni
##andja
##astme
##judes
##sidel
##tseda
##likuna
##hooldus
kordus
kursus
liitus
##nemiseks
kosmeet
sellelt
taasise
kasutame
iseennast
ehitamiseks
üliõpilaste
sae
##lõuna
##riste
##state
##analüü
##hvatle
heast
tarni
##toloogi
##konkursi
##meetrise
##praktika
asjaaja
avamine
pimedas
turuosa
##demokraat
tublisti
järeltuli
tuvastada
teisipäeva
tegevuskava
##palk
##ppida
Jose
Stre
aato
jõuame
maandu
olgugi
trammi
tõdeda
töötav
kolmeks
kõrgeim
lubavad
tunniga
vasakul
##erimiseks
lisandus
direktiiv
järgmiste
teravilja
vahetatud
tõenäoline
kategoorias
soovitatakse
kriminaalasja
Ze
##imat
##usal
She
Ven
puh
Pria
lopu
stre
##vadega
Lille
lahus
tippu
##stabiil
##stajaks
jubeda
osalus
võidus
##rateegia
printse
sisaldu
mismoodi
kohtuniku
selliseks
takistada
tegevusega
võimalikke
##koti
##kuus
##kütte
kada
Väike
##ühendus
eelist
koleda
jälgima
pakendi
realist
retsept
kantakse
puuvilja
üksikasja
praktiline
konkreetset
##ovi
##üda
##liks
##altöö
##inile
deba
##liseid
kolis
täide
jõuaks
mandri
trolli
põhjusi
suundus
missioon
naistest
väärtusi
kongressi
meeleaval
tervislik
tänavatel
kontrollib
ettevaatlik
taasiseseis
vaatamisväär
##wor
##ngel
Tro
##ndika
##vesti
füsi
sureb
tööks
Thomas
euroni
hoones
vaimus
õppeka
ühenda
üldist
jõulude
piletid
kahekesi
kaupluse
keerulise
munitsipa
tellimuse
köögivilja
klienditeen
mingisugust
miskipärast
operatsioon
##art
##iser
##kriis
tipu
##hoones
##märkide
kaovad
libise
pikali
söönud
ahvatle
jäetakse
lepingud
emotsioon
karistada
##28
##get
86
##anne
##gija
##laen
##peedi
pele
##tatava
merel
jõulud
lubati
rajati
vedele
##ühenduse
Levadia
täitnud
varemgi
olukordi
praegused
väljanäge
propageeri
teineteist
stipendiumi
##mos
##jaos
##nnad
Helen
kõlas
kõnes
raseda
söövad
tunded
vägede
##meeskonna
Tartumaa
näidatud
üritavad
eelmisest
peapiisko
täiendada
üliõpilas
muutmiseks
maksimaalne
##bre
kv
Tür
jae
mln
Rand
Turu
Ühis
##ootiku
horis
peatu
rollis
romaan
sõidus
tagama
neljast
omaenda
seadusi
kokkupuu
lõppedes
partneri
šokolaad
logistika
lõpetamise
seltskonna
##3-
Mel
##ootja
##tmise
vaev
ämma
##näärme
kuber
panus
asusid
bussiga
sootuks
kodumaal
tahtmine
üritasin
sellistel
internetti
Nä
##kusid
Paju
Türi
World
ostes
rehvi
robot
Aleksei
samasse
osutunud
alustasin
lapsevanemad
varahommikul
##mur
##nat
##geri
##pina
lon
##käiku
kisa
kosu
kära
##kaitsja
Daniel
kreeka
##meestele
tehniliselt
##päi
4-
18-
Hiv
hor
king
loos
tõke
##põhine
ahjus
oludes
impeeri
õigeusu
Sillamäe
ravimeid
toimivad
täitmist
valimise
tarbimine
aseesimees
##uts
##win
84
bu
##loom
Fre
Iso
##puudu
pree
sade
minus
Gustav
Slovee
kogeda
alkohol
hambaid
lennata
osutuda
tagavad
artiklid
pikemaks
aastatega
ehitamine
Euroopasse
armastavad
kohutavalt
##ope
##illa
##tent
##kraad
##oskus
ülda
##kaarti
hansa
vihja
laialt
pruuni
võimul
võltsi
##portaali
dopingu
automaat
kaasatud
töötajat
##tehnoloogi
kustutada
transport
käesolevas
eestlastest
materjalist
##ent
##rovi
Ama
Mor
ülik
##tustöö
eelnõ
kotti
tende
tiiru
reside
olematu
ekraanil
kohtuvad
maapinna
mõtlevad
suurimad
rohelised
esmapilgul
kasutajate
moodustatud
toiduainete
potentsiaali
##04
−
eu
1992
kire
##stunne
ultra
ladina
mõtled
naerab
propor
ületas
alumiini
milliste
teatasid
igasuguste
lahendatud
teretulnud
majanduslik
##-18
Ag
##punk
##sell
##uumi
Kot
##lehti
##peali
rühm
happe
kuues
kõrve
laule
magnet
sõidan
töötus
Jevgeni
endasse
kohanud
igavesti
protsent
põhjalik
tudengid
vähemaks
praeguste
##23
##roon
Kil
õht
##asjad
##märke
##usale
##vaade
Joose
eliit
jagas
Christ
Silver
vaikus
aastase
ellujää
filmist
jätavad
hoitakse
keskmist
tahaksid
keskerakond
täiendavalt
##cto
##bara
##inte
Lei
##bades
patu
##ainete
hekta
hoolt
raami
##inimene
Tšehhi
minagi
##materjal
kuupäev
valmist
Ukrainas
avastati
tootmist
vajadusi
teatavaks
korteriühistu
##een
##oode
Pho
hiin
klik
##aalide
##katele
##peedia
munad
##ooriumi
formaal
mõlemas
ootused
otsekui
liitumis
naturaal
Brasiilia
eriliselt
kaubamaja
metoodika
telefonil
koalitsioon
##bud
##edu
##haru
##idee
##ngad
##tagi
sus
Ivar
haigu
rinda
samba
sildi
kraami
nägime
püüame
##biootiku
eksport
igaühel
liituda
vaidlus
eristada
seepeale
juhtumeid
viimasest
arusaamatu
valitsuses
peasekretär
##.-
87
Ol
##kene
##orit
"),
350
##seksu
Elle
Riina
Ville
autol
omane
piirile
rahvuse
##aastaseks
asutuste
vallavalitsuse
##fu
##ša
##low
##wal
##gelt
##kula
##moni
ine
kva
Mait
Mikk
kasi
käit
paja
##üksuse
asfal
asjas
juhtme
panime
reegel
ruumid
väikee
##euroopas
anonüüm
etendus
üleriigi
##võistlusel
spordiala
kirjutasid
sotsiaalmaksu
Dj
##ardi
##http
##maht
##ooda
Dis
Dna
age
##hindu
##klass
sild
siru
##arvest
elule
kinga
veest
küsiti
lahkub
##nemisele
ebavõrd
kaitsma
proovin
tunnete
Jaapanis
arvestus
alustasid
kohustust
omandanud
unustanud
noorsootöö
##cho
##rud
Cv
##valmi
amme
euri
paadi
pakki
eksemp
fassaa
kaltsi
võrdne
kunstik
sadamas
suurune
sümboli
arusaama
rõõmsalt
füüsilist
harjutada
##kokkuvõttes
ideaalselt
avalikkusele
##rar
##mnes
##nnus
Koit
Toyo
kopu
lõid
oskan
pliia
suute
teket
Noorte
kaotuse
bürokraa
väljendada
arvestatakse
"-
##leva
upu
##artik
veab
##keelne
##suhete
Nokia
harve
lähme
rukki
tehno
artist
elujõu
intres
maksud
##olukorra
nõudlus
sarnase
taoline
uuritud
valikul
elektria
foorumil
ajakirjas
meeldejää
turniiril
ruutmeetri
ettevõtmine
##26
##gn
Red
Win
dia
köök
vete
Heiki
ümmar
ajanud
ehitama
istuvad
otsides
rohkelt
kohtutäi
lähitule
ettekanne
konkureeri
ettepanekut
politseinikud
##ei
##cis
##put
##kase
##oomu
185
Aas
Lind
##ajaloo
Kirsi
vaene
koorma
kruusa
abivaja
aktuaal
läbivaa
haigused
tööstuse
vahetama
ülestõus
Hispaanias
igapäevane
##bja
##foo
##oti
##dena
##fina
##mmal
##armee
##tlused
##stantin
täpsem
ohvriks
väiksed
oleksime
ravikind
isiklikku
kasutasid
tavalisest
mitmesuguseid
##gre
##erin
##pika
##inete
Eelk
seto
##maitse
##ndusel
##spordi
küüdi
männi
kanepi
koosti
omavad
nõustus
rasedus
siiralt
haridust
töökohti
erastamis
Pm
##naat
##püüd
##–200
Ope
##ktist
kude
püst
ausad
eleva
maagi
Kaarel
lõpeta
tõsist
Araabia
adekvaa
imeline
julgust
soojuse
võitsid
liikluse
südamega
alustades
ilmastiku
kinnipida
koostamine
##kloo
##misa
1991
mode
meilt
mässu
puust
trenn
Yorgis
joonis
taldri
teoori
vanast
mõlemat
tükelda
õppimise
postituse
seadusest
tüdrukute
uuringuid
protseduur
##–1
##cle
##lor
##suur
Dvd
##tsist
pann
##gevust
##kindel
valva
muljet
olnuks
vahetu
lindude
omadega
ekstreem
erapoole
seisundi
üritanud
erakonnad
Riigikogus
suurejoone
##šis
lt
:).
Jen
Cali
stii
1940.
Küpro
lakka
##meditsi
Europe
asutus
halvad
kaabli
laulud
levinu
lõbusa
vajame
ajakiri
konteine
valdkond
Bulgaaria
ennustada
huvilised
kuulutati
põhjaliku
sakslased
##elli
##olfi
##ppes
Com
hmm
oja
##teede
##mpanii
lehvi
müüma
niiet
talus
##kraadid
##valitse
galeri
##gruppide
##hinnangu
##keskkond
taevast
Kadrioru
ansambli
teadvuse
teatanud
toodangu
tagasihoidlik
##47
##30.
##ovo
Ul
##ised
##regu
##tshe
Ave
Lou
mür
##kaare
##vaari
Pala
##kandid
hinde
kuhja
vorme
##festival
pühitse
##likkusele
mõlemale
pisikese
statisti
piirangud
õnnelikud
kindlustada
kontrollima
põhimõtteid
##27
##riku
Die
ant
##ruste
Nest
Reet
ehma
audit
käies
mulda
##koolide
põhjas
kõrgele
punased
sõitsid
reaalsus
Harjumaal
tehingute
ettevalmistus
##ndes
Kiv
jäne
sing
##hallis
##talist
##valmis
Karin
kinke
koeri
osast
kardab
nõutud
tserem
kogunes
noortel
kokkusaa
suuremas
treeneri
järgnesid
Baltimaade
ajakirjanike
valmistatakse
##48
Ah
##emüü
##laks
##kodus
##laual
Ilve
kurt
mark
viik
##deldud
##katest
elega
emaga
riigik
enesele
ometigi
püsinud
salvest
aktiivse
peidetud
operatiiv
järgmiselt
võistkonna
sotsiaaltöö
##uule
4-5
##tartu
sool
aaret
eesku
saigi
hulgal
jagati
jõutud
samale
suutma
kehtiva
osakond
sobilik
koolimaja
festivalil
ettevaatlikult
ms
##kiht
Jas
Ott
##vääri
1993
Föde
piru
päka
hoovi
kehas
leebe
libli
külmka
löödud
kogumis
olnudki
tarkuse
autojuht
dialoogi
hävitada
maksmise
nädalaga
ülemaail
geograafi
saatejuht
vastavate
võimalikku
##lk
vid
##stiga
jooma
kandi
kinos
leppe
##partner
##tiliste
liigne
naerma
toredad
üritusi
Slovakki
tarbimis
viibinud
hommikuti
vahenditega
##igu
##gala
170
Are
mor
geni
pant
##asjade
##pileti
Phili
luter
Norras
krundi
lähtub
mõtisk
punast
filmide
krediit
tellija
##haridusega
lahkumine
rahvuslik
kuritegude
kirjalikult
##gal
##ostu
saju
tale
uste
Põllu
pojad
näited
tunnid
Inglise
algasid
kalapüü
viletsa
vähemus
Haapsalus
jõuluvana
kristalli
toimetada
##materjalide
ülemnõukogu
##ntus
Lem
##sused
Sche
ained
puhast
asutati
keskaeg
küsinud
eelistab
fantasti
viisakas
üritusel
kasutajad
otsitakse
valitsust
õpetajaid
kirjutavad
uskumatult
diskrimineeri
konventsiooni
tehnikaülikooli
##lah
##tro
Ek
##murd
Ree
kit
##tsema
adve
hakk
##seisev
Vassi
kalle
##stunnet
naisel
reserv
solida
toodab
issanda
klaveri
muudest
sümbool
taolist
kahtlane
jalgrattu
lülitatud
suurusest
samasuguse
##37
##38
##oga
Ea
§-
##nnar
##puru
Alo
Epl
##vahel
libi
##inguga
Villu
kuuks
ooperi
##aastatel
##agentuuri
kontakta
takistab
evangeeli
isikutele
lubatakse
mängitakse
tagajärjed
vaadatakse
##pot
##ande
##hist
##kima
##vski
##ovski
##parte
##taalia
jäeti
jõuti
kaste
saati
täpse
ulatu
##toodete
Margit
kaldal
seinad
istusin
koeraga
puidust
kingitus
maailmale
paranenud
puudumise
vastuvõtt
Saksamaale
ajalooline
kohalikele
korraldati
poliitikat
fikseeritud
spetsialisti
International
probleemidega
##bili
##põllu
##torni
Sten
Heino
jutud
tuues
astuma
perede
samaks
Palesti
doktori
teataja
teenete
ebameeldiv
hinnatõusu
lihtsamaks
üksteisele
tarbijakaitse
25-
##.2014
##jelda
bila
seri
##oogika
Ilmar
Super
katla
keraa
otsis
solvu
teadu
Sakala
huviga
iseasi
jutust
uurija
hankida
##ndamisest
aegajalt
assotsia
kalmistu
pettunud
välimuse
Tammsaare
ideoloogi
unistuste
muudetakse
välimusega
##91
##kolm
***
##reuse
##vooru
King
Poli
hagi
söön
##hvitse
##kandis
##matute
Grupp
Hanno
kaevu
lilli
õhuke
##mõeldud
pannes
sileda
tunnus
lahkuma
omapära
pikkust
saartel
suhetes
täitmine
veerandf
projektid
sellisele
ekspertide
erinevatele
##ugu
##uth
##isad
##ooja
##dusel
##maadi
kase
##goslaa
##stikus
##väärse
Neeme
balle
kulda
##isikute
Raadio
avarii
säästa
##tallinna
##vabaduse
elavate
mõndagi
emakeele
madalama
pakkudes
sisemine
pakkumist
põhjuseid
osalemiseks
##kär
##aate
##jevi
##kõrg
##mbid
##pole
ürg
##tiini
Alar
##laagri
maist
savis
villa
##tilised
eelkäi
endist
teatati
töötamise
süüdistuse
veebilehel
üksteisest
protsendini
rakendamine
inflatsiooni
klassikalise
peadirektori
märkimisväärne
häv
##inast
##kesti
baka
star
sümf
tass
##juustu
##nevate
Jorda
uuene
eluiga
minult
tempos
maapiir
liitunud
missugune
mõistetav
näitlejad
tugevasti
õpetajatele
##klub
Vat
amp
1980
piki
uppu
##mendil
laiem
süsin
temas
##udeleid
efekti
nurgas
##asutused
##useaduse
asjaolud
lõigatud
oluliste
segadust
tulevase
kulutused
osaliseks
tulenevad
süüdistada
klassikaline
võimalustest
##og
##/200
##issi
liia
mõjuta
valija
vilist
##.09.2012
järsult
müügile
piiride
surnuks
tõstmine
arenduste
muuseumis
ratifitse
riigiamet
üllatuseks
Hy
wc
##häda
##ndad
##tski
##udus
Leo
bri
ämb
6000
köha
##aktiiv
juuru
ostan
lehelt
notari
täpset
võilei
##misvõime
disaine
kaitsja
kitarri
paraneb
ründaja
uskunud
meetmete
akadeemia
silmadega
paigutatud
väljapoole
patsientide
välispoliitika
##tiat
:-)
Cra
kulg
pihu
savi
vead
##invest
##korter
Fried
tahta
meetme
tegevu
üsnagi
looming
põletik
##kantsleri
##keskkonda
konflikt
piiriüle
tööülesa
kokkutule
moodustas
vastastik
diplomaati
ajakirjaniku
eestvedamisel
##rub
##ööv
##bank
##ilus
09.
spä
##ajaga
##elust
##iskus
##nnist
##tilist
korst
tulge
tulnu
##punktid
##võtjate
autole
skulpt
täname
##omanikud
haigust
pälvinud
pärinevad
järjekorra
ratsionaal
restoranis
võlausalda
##rong
##hüppe
##tekst
peks
##maadis
##mootor
##tagasi
kergi
tõdeb
##väljaku
jalgsi
kolmik
läbivi
pooles
ebatava
istudes
kõneleb
tootjad
tõsiasi
ärimees
viidates
##kirjanduse
aadressile
olulisemad
päevakorra
vabariigis
Skandinaavia
taasiseseisvu
##rul
vö
##alla
##mmus
##ktari
##rusid
##tsuses
1980.
osata
säästu
varjus
Järvamaa
jooksnud
teenivad
vastased
vaatasime
Suurbritannias
##ova
Usb
vapu
##itnant
aetud
koodi
euroga
kinkis
laskma
sealse
teemas
uskuma
veider
õrnalt
Iirimaa
lõpliku
toimuda
kerkinud
polnudki
osalemise
paiknevad
soodustab
armastatud
taastuvene
paralleelselt
##dea
##vol
Ss
##pesa
Sas
##lejad
##nderi
##oonil
##tüdru
##vamad
Kagu
ränd
soen
tõhu
##number
lindi
naiiv
põlis
Merike
kohane
sponso
astuvad
lähtuda
viiruse
##struktuur
asukohta
harjumus
kroonika
sülearvu
meistrite
sellisena
sõpradele
toetuseks
ehitatakse
Afganistanis
intressimäära
##atch
##–201
Luu
Met
Nur
##hanke
Jean
habe
talt
Külli
Krista
Taanis
paaris
##vahelise
aktsiad
pärimus
pistmist
saaksime
lastekaitse
##02
##01.
lö
##bina
Nik
##kojas
##tsiga
moni
past
suut
uinu
vait
Harri
Yorgi
holla
neeru
plaka
tooks
##kustega
hindas
lehele
nimeta
rikutud
tegeles
tähtsad
Ekspress
usaldada
katsetada
meistriks
omanikule
tugevdada
kontaktand
meeskonnas
programmis
juhendamisel
kokkulepitud
intellektuaal
##arv
##kko
Ani
Mir
järv
saun
##arhite
##taguse
Black
Lähis
Roman
omada
provo
Raamat
paaril
tabada
nüüdisa
sekretär
voodisse
kohtunike
muretsema
mõjutanud
väljaõppe
ettevõttele
reaktsiooni
täiendavaid
kasutuselevõ
organiseeritud
##mpe
##sens
125
##bussi
Ligi
emaka
......
kontra
vastik
vägisi
võimud
vedanud
venemaa
lasteaed
rannikul
tööriista
kontrollis
veterinaar
väiksemaid
##ana
##remo
##ööki
Dar
baa
liba
küüne
akende
lõpust
kaotust
vanglas
võtmine
meestest
tähtaega
ähvardab
##võimaluste
konteksti
soovitused
sotsialist
energeetika
sissetuleku
riigieelarvest
##gini
##psüh
04.
##idena
##julge
##poega
nihu
maalt
milli
sõjas
Iraani
kiidab
teedel
leppima
suurelt
advokaat
niiviisi
vabadust
Akadeemia
igasugust
Stockholmi
staadionil
uurimistöö
munitsipaal
##zy
##õja
Led
##riini
Puna
kama
kattu
porno
seedi
tooli
libeda
rusika
lepitud
saadiku
valikus
allergia
eestlase
nädalaks
otsekohe
riigilõi
suudetud
hinnatõus
kaasnevad
loodetakse
korraldavad
maailmasõda
kodakondsuse
##cca
##doks
##lang
##milt
##rali
##saks
vul
feno
nisu
##gudele
##jateks
kogub
murda
pumba
värav
##omaniku
haaras
kauaks
suhkur
sõiduk
ehitaja
kohtade
laenude
raskeks
seletas
astronoo
kunagise
planeedi
sätestab
põhikirja
saatkonna
projektiga
religiooni
poliitilised
##ye
1/
##aeda
##steid
Mere
York
blog
närv
rõdu
tõmb
laius
leina
menta
pilku
rippu
Anneli
jälgib
jääbki
maksus
ajutise
arvutit
eeldada
element
juulist
üritust
##ingimused
Egiptuse
eelmises
##liseerunud
režissöör
tähendada
viitsinud
koolitusel
lennujaamas
pealkirjaga
vallavolikogu
##ikul
##piko
##oneer
##rolli
kong
nuku
Paavo
kurva
loosu
panni
tegus
hoides
suunal
valusa
Alexand
erilisi
rendile
söögiko
võrdsed
edastada
kardavad
koosolek
külalisi
lavastus
maavanem
##instituudi
ostmiseks
publikule
väljendus
ideoloogia
populaarse
teoreetiliselt
##has
##äie
##kood
kak
##statu
kisu
pris
puie
##hooaja
Matti
Mõõdu
lõhki
püksid
soodne
värise
##vaheline
hapniku
kõrgust
maakera
Rakveres
Valgamaa
kaugemal
mängisid
numbreid
riiklike
Kesklinna
juhtkonna
luuletaja
meditsiin
riikidega
õppeaasta
mälestused
planeerida
töökohtade
teadaolevalt
##vie
##öri
##toim
Gaz
##likut
##prefe
Mõisa
kõrbe
soole
##ndajate
juured
osutub
uudist
Christi
olekski
##ühenduste
rohkesti
alustatud
kontserti
lepingute
maksuvaba
sealsamas
kaubamärgi
suhtlemine
stsenaariumi
##cial
##ldud
max
##saksa
siid
truu
vehk
##järgus
##teatri
ohvri
taipa
##koostöö
##stuudio
##tasemel
fännid
lastes
motiiv
piirdu
tabeli
areneda
endised
korrata
sulgeda
liikudes
ääretult
koostanud
atmosfääri
kirjastuse
kindlustatud
##kah
Ec
##vähi
Eha
##ikuus
##kapsa
##kateg
##lehed
ukra
Koidu
album
gmail
kiisu
vanim
##koormus
tsivii
##nemisest
Nõukogu
asjaoma
hakatud
alguseks
kutsuvad
meeldiks
hääletada
kultuuris
sarnaseid
Konstantin
erinevused
kohtumises
tolliameti
vabatahtlik
kandidaatide
##11.
##dap
##ded
##eld
##hise
##värv
Ens
Epp
##leppe
Vali
kukk
riba
Liisa
rikas
tõeks
##teenust
Aaviks
kodune
ajutine
bakalau
tagatis
tunniks
##stajatele
##turniiril
avaldust
kusagile
lülitada
magamist
mineraal
##petsialist
korrektne
vabastada
eelistavad
korrigeeri
väiksemate
Ph
##onid
##rent
##rohu
##teat
##tükk
##vang
##pääse
##varia
##kogust
##liinis
roosi
##stamaks
saatma
selged
võidel
ainsaks
arupäri
ettevaa
soovist
sundida
samalaad
tegemisi
##inimetatud
ekraanile
jalgpallu
kuritarvi
liigutada
meisterda
perenaine
töötajale
vahemikus
rahvahääle
võistkonda
katastroofi
olemasoleva
vajadustele
tavapärasest
olemasolevate
##iini
Tsa
lär
##tseid
Timo
##vadest
Kulla
pausi
vabal
kliini
kohata
virise
võtmes
lapsest
rikkuda
suutsid
tekkima
Paldiski
Pärnumaa
ajateeni
edendada
hommikust
materiaal
odavamalt
põhjustanud
majandusaasta
kontseptsiooni
##gh
##dic
##esk
##sär
##aade
##aktsi
##hästi
##ndera
##ringe
##udist
Bush
Rene
##frikas
##mmaste
##teksti
##tilisi
##misteks
Toyota
jaotus
oskaks
otsene
sarjas
##võimalus
langust
olemust
parklas
tõelist
üllatav
##ktsioonid
kloostri
õigusakt
üritused
komplekti
kuulutuse
tuletõrje
Afganistani
tutvustatakse
##33
##ef
<
##bed
##lili
Nas
sit
##alsed
##dikaa
orto
Honda
Times
kodul
lahing
euroala
lisandu
hindavad
täiendava
kontserdil
##uul
Ip
##html
##riin
##vaim
202
Eüt
##ketta
arre
jook
lage
seost
väida
##visjoni
jämeda
maavär
Islandi
immigra
meeletu
üheselt
sügisest
koolitaja
kuivatatud
probleemiga
mobiiltelefon
vähendamiseks
##sage
##relli
amor
inno
##ktorit
Obama
keevi
seeni
##lduseks
esiete
paavst
rasket
skeemi
keskele
rangelt
tabelis
maksuamet
iseloomuga
seisukohad
väljamakse
moodustasid
kergejõustiku
##ehh
gu
wa
##buss
##kitse
##lehel
##munud
##alselt
##dusele
##oneeri
##tavuse
maris
##riigist
toidud
öösiti
Virumaa
teenima
elanikest
reguleerida
vastuvõtule
my
##karja
##majad
##staar
Sony
pääs
##koosse
##plaadi
Marju
peitu
##01.2013
##valgust
elamus
noorus
##ktsioone
vabaõhu
sujuvalt
iseseisva
üllatunud
humanitaar
lapsevanem
##-14
##osad
##vega
Gri
Mün
duš
##juhte
##rõõmu
Vale
kõhk
pest
##viljad
pered
Peetri
hiilga
kreemi
märgid
mõelge
piloot
tekita
andmist
mainida
tennise
vastuvõe
ülemäära
eesistuja
tööleping
teenistuse
##lüli
1,2
12-
Sol
ane
##ainet
##onile
Ferra
hetki
muiga
torma
hinges
hooned
kaabel
saadet
südant
hiljaks
istunud
kahelda
laevade
mugavam
jutustab
järgmisi
võistelda
varastatud
väljakuulu
hädavajalik
##seem
##sina
##roskoo
##väljaa
levib
riske
romaa
sõnab
tõmbu
ühing
##poolsed
##ruusale
ekspor
kõrget
paluda
##inimeste
Jugoslaa
võitjaks
ühinenud
keskpaiga
sünnipäev
tarbimise
edetabelis
oktoobrist
kvaliteetne
päästeameti
infotehnoloogia
94
jü
##beti
##vuti
40-
Bud
leo
##ltsin
##ndest
käiv
##väljal
Vahur
anima
esmaa
jalge
sadam
tahet
testa
aspekt
müügis
reform
##sektoris
akvaari
osatäht
turniir
arutelus
meeldiva
vastasse
##korraldaja
##tunnistuse
eelduseks
ostetakse
leevendada
tunnustust
##88
##kr
16-
mao
##alane
##ikaas
##phone
Juri
Nissa
raisa
tipus
##filmide
ühelgi
Mehhiko
kaasmaa
külalis
valisin
õiglane
detailid
kummarda
küsitlus
suguvõsa
##probleemid
ameerikla
instituut
järgnenud
alustuseks
rahaliselt
vähenemine
iseloomulik
##-40
Ei
##õuge
##mista
##võims
Kind
tole
##kester
Esime
hätta
korvi
laias
##päevase
ilmneb
kuuleb
samade
tudeng
##stustele
algatas
aruanne
pikkade
toimida
üleliig
loodavad
viitavad
arvutisse
enesetapu
investori
pikendada
plahvatus
suhtlemis
terrorismi
korraldanud
lapsepõlves
8-
##alad
##biku
##hall
##nami
4,5
##ndame
##vikud
jõuan
peksa
puhub
värba
võrku
##teaduse
Oliver
stress
##meeritud
arutati
asjalik
kaevata
selgroo
##reerimise
kokkuvõt
tegutsev
viimaseid
lisandunud
riigihange
relvastatud
psühholoogia
##õpu
##alid
##ight
Ten
tik
##burgi
hasa
mana
tsir
##taksin
trend
Marika
asjale
juhiks
kirjad
liinil
jalgade
krediid
taastus
muutmist
ruumides
Põltsamaa
inimkonna
kehtetuks
kirjutati
mõistetud
tähendust
nähtavasti
##ministeeriumile
spetsialistide
##-09
##12.
##cor
##elle
##ksust
Liiva
andro
debüü
mõõtu
pista
sprin
##01.2012
##puuduse
mastaa
pildile
valikud
saadavad
täiendus
kuuluvate
piiranguid
niinimetatud
probleemidest
##bee
##gla
Xx
##asid
##hvis
pus
##gusto
##itide
##stein
Risti
helli
koomi
##aafrika
trauma
ehitise
liikide
tõendeid
värvitud
elanikele
iseendale
vajadusele
initsiatiiv
kättesaadavad
##-13
##nka
##ääre
07.
##mmast
Anni
pale
riis
##punkte
Laari
ronis
sadas
terra
turbo
Evelin
London
kütust
laulab
summad
valdav
viitas
galerii
raamist
argument
kolleegi
segamini
järgmises
omandatud
väljastpoolt
##kae
##nee
ih
08.
##trans
1200
Aasi
raie
süst
Ranna
hiire
jätma
konde
püssi
tabel
##puudega
käitub
maarja
sõnavõ
tallin
koguneb
kollase
raskelt
varasem
visiidi
Aaviksoo
ohtlikud
paberile
silmitsi
solidaar
tasakaal
valitses
ökoloogi
meelitada
antibiootiku
projektijuht
##-17
##kkel
##sugu
##vers
##lvest
##oogia
epis
oran
sens
tüta
vagu
vank
mõjul
mõneti
##haridust
heakski
naabrid
ootasin
püüdsin
##ettevõtja
autorite
fikseeri
nõutakse
töötades
valimine
võiksime
surnukeha
emotsiooni
konkursile
olukorraga
emotsioonid
bakalaureuse
##idet
##likü
Het
küp
nei
##lause
##mäele
Kaia
nali
pall
##ritori
hiili
kalad
messi
tagur
tarne
tuult
ühtne
arhiiv
oskust
arutama
defitsi
riigilt
senised
tunneme
ajalehte
arstiabi
julgenud
jätkavad
sündmuse
niisuguse
suuruselt
kuulutatud
Isamaaliidu
juriidilise
poolfinaali
##ades
Mia
Otto
Anton
Merle
Siiri
kööki
rütmi
##järgult
jätsid
lusika
matuse
päikse
selget
toitlu
Iraagis
ainsana
ravimid
sõdurid
teadsid
maksimum
muutusid
vedeliku
##ktsioonide
##projektide
kuulutada
kahjustada
tähistatakse
lõppkokkuvõttes
##še
##rgu
##–18
71
##ctor
##üksu
räi
##esine
##üksus
Bill
Maar
aste
piib
ruma
##võtjad
Henry
Kihnu
kasse
killu
koogi
olgem
sülle
##põletik
eetris
elades
mõtete
stseen
Califor
Kristus
teateid
varjata
etenduse
kaotatud
saanudki
avastatud
võistleja
õigupoolest
81
##miat
##piku
##sted
Ral
Või
##mensi
alad
heeg
loov
nupp
paus
Allik
parda
vaese
võeta
kalend
haarata
põlvkond
##liikmeline
##tingimused
aprillist
kasulikud
mingisugune
kõrghariduse
##-16
7-
##mäge
##riba
##härra
##oodid
jaos
põde
halvu
viltu
altkäe
hõlpsa
itaalia
võiduga
kogukond
näitajad
allakirju
kannatanu
osalejaid
Saksamaalt
investorid
järgmistel
ameeriklased
ty
vm
##stev
Fis
Syd
Tee
##remli
##ressu
diis
viin
##erivad
toome
tsent
firmas
rikkus
suudad
mõjuvad
oletada
saarele
esitasid
kutsunud
nüüdsest
selgunud
siseriik
jooksevad
kohalikus
paistavad
poliitiliselt
##77
##ah
##ily
##ram
Gp
##/201
##riif
Mit
##jaolt
##lassi
hiid
uisu
##aaniat
##kohale
asjus
ärite
##kapital
##töötaja
börsil
nostal
kaebuse
mereväe
metsade
suurtes
trennis
##nimetatud
leppinud
kasvataja
kehakaalu
vajaduste
minimaalne
psühholoog
kohaldatakse
kontrollitud
##sobi
Emi
los
##.2007
##serva
##lasteks
Kosovo
kõiges
möödub
nautis
puruks
lisasin
mineraa
kõrgemad
ületanud
##võistlused
koolitust
kujutatud
tegelikku
tudengite
korralikud
konkreetseid
##zer
##üht
'.
6-
##ikal
##piim
##roos
Lie
juhu
##tluste
index
peabki
süvene
juhtuma
soojalt
Rumeenia
elanikke
kellegil
rõhutada
tehnikat
tuletada
kontaktid
mängijate
ühtlaselt
enesetunne
tervisliku
operatsioonis
elektroonilise
##ins
##näo
##mole
##sadu
##seli
##laske
##litse
##mikud
Muhu
auku
jume
võte
audii
süsti
teelt
tomat
abstra
soojad
##statavad
hetkest
protest
soovida
teemast
kohvikus
kontoris
lühikest
sisemise
Ühispanga
kinnitasid
kogemusest
##temperatuuri
huvilistele
tunnistanud
olümpiavõitja
##ähe
93
##feld
06.
Coq
##geeni
##liitu
##uselt
abor
milla
publi
pürgi
Ilvese
draama
asjasse
jalaväe
pöördub
ülesehi
asutamis
huvilisi
ilusasti
pretensi
töödelda
defineeri
maavanema
otsustavad
eksisteerib
##ang
##gue
83
##filt
##leks
##robo
Cas
Via
##rikat
##tlusi
Fred
Kirju
nuppu
oskad
peret
soolo
diisel
pürami
ronida
##nemisega
esteeti
müügist
otsinud
selgust
esialgse
loobunud
stuudios
mootoriga
sellistes
skandaali
varasemate
üliõpilased
depressiooni
##num
##ola
vb
##õpet
05.
1,6
blu
##lukku
##pertu
##stiil
fili
häma
ilmad
kõnet
auhind
lõppeb
vaatad
diagnoo
hoiatus
lasevad
märkasin
elustiili
kontserni
riigieksa
ülemaailm
arutatakse
praktilise
sissetulek
järjekordse
vaatamiseks
##eroo
##gade
##gida
##reas
##reet
##sini
##ikesi
##jaani
##kotti
##mmide
##stelt
Juli
rind
Helle
lambi
nahal
näeks
veits
##korrald
Albert
Lätist
aimugi
alused
kõiksu
nimele
arhiivi
mõistma
planeet
eeldused
jagamine
kujundus
neutraal
paistnud
valijate
panustada
vanematel
##86
pr
##mule
##stii
Jer
häi
##ajast
##ntsed
##võitle
Volks
värve
##jaamade
viibib
hoiduda
kaunist
mitmest
tasandi
ametniku
eelarves
rohelist
##kvaliteedi
Jeruusale
kommunika
tuttavaks
püstitatud
ametiühingu
situatsioon
ühiskonnale
meistriliiga
raamatukogus
##hz
yle
##ttida
Paki
play
##tamaks
magab
ametit
hääled
kuulis
Kristel
arvanud
enesest
esitaja
magusto
parteid
söömine
uurisin
vaatlus
võimsus
ajalehes
menetluse
ülespoole
Palestiina
tegevusele
täiendavat
vanalinnas
##ül
##uuma
##õigu
ate
sto
##karva
loja
oldi
##haldus
##hetshe
##likeks
##näitus
Bushi
jätan
muist
serva
tõrje
arvati
botaan
läbiku
##kompanii
vaimust
Hiiumaal
kunagine
mängides
pöörduma
saabudes
Ülemiste
Päevalehe
alustavad
mõistliku
mõtlemine
võimaldaks
kasutatavad
##mmy
##oku
##sso
Ef
kw
##kker
##õpra
%),
##venda
jaan
orbi
Sindi
jäime
vajus
##platvor
kehale
täiend
väheke
innovaa
lihtsat
võimude
sõidetud
tõusevad
vaimselt
viidatud
dokumenta
edetabeli
järeldusele
seltskonnas
ajakirjanikele
keskkonnasõbra
##tooda
nohu
õpet
##järgne
##taljon
Kopen
Padar
arutas
jaemüü
kassid
kolida
lavast
siirdu
masinad
tähtede
kindlust
osavõtja
psühhiaa
ülekande
agentuuri
otsustama
viisakalt
välistada
muinasjutu
seltskonda
tehnilised
turvalisus
konkreetsed
##oime
Fin
Mes
tan
##lanta
kook
lõvi
löök
ärga
##gusega
##listid
lööma
makro
moonu
mässa
rikub
tõkke
##allikas
Antoni
endalt
katsed
##lepingut
##ringselt
edasine
mõttega
kaudselt
raskesti
tavalist
varustus
pakkumisi
ebastabiil
pühendunud
väiksemaks
arendamisel
asepresident
##kw
(+
##albu
##vele
##õppi
ekr
rai
##linnu
##viste
lihv
mili
##keeles
hõõru
netis
omaga
pasto
vedru
##statuna
Reilja
kaugus
kõrvad
liitri
nakkus
spämmi
õpetas
William
hüpotee
koerale
muutuks
mäletab
erinevas
mõistnud
Portugali
enamjaolt
järeldusi
ülevaadet
olukordades
vähendamine
rahvusvahelised
##dan
Sh
##unud
Dra
Tul
Vaa
top
Gene
iste
maak
##kasutus
illega
keiser
kerkib
poissi
visiit
voolab
##.03.2012
##analüüsi
omajagu
palesti
ruumide
toetusi
töökoht
##teenuseid
vabandan
vastutav
##valdkonnas
kokkuhoid
magamistu
pöördunud
referendu
väärtuses
tööandjate
kogemustest
statistikaameti
##aed
##õde
##štš
82
##viid
Tol
##briga
##viibi
1970
Rail
Allan
otsad
teete
##seadmed
##võtmine
Sadama
lausub
maades
meenus
plaati
##koosolek
koormus
graafika
komöödia
küpsetus
avastanud
hullemaks
kunstnike
plaanitud
##46
##rer
##võe
go
##konn
##neli
Jes
##gusel
Draa
Olga
lohe
kombe
##geerida
##ingradi
##kaupade
##keskust
illusi
närvis
praost
viiest
##mängudel
aeglane
metsast
paremas
riietus
alustama
pakkusid
seadmeid
ülejäänu
sakslaste
majanduses
delegatsiooni
tl
##ansi
##kata
##mond
##nise
##siku
##sõit
Gen
Sad
Vai
con
õun
##tonis
##väärt
Fili
##valvet
Diana
herts
müüri
Kontse
Serbia
pagasi
sibula
juhivad
kaasaja
kõrgete
esitavad
kasutata
kasvatab
teisedki
tüdrukut
argumente
kellegagi
millegagi
turistide
kujundatud
salvestada
põhjustavad
probleemidele
elektrienergia
##eas
##äre
92
##olev
##üüdi
##alset
##tutvu
purs
rips
##10.200
##gudega
##kannet
##pargis
1989.
isole
koore
koost
neela
põgus
##toetust
naerda
osutab
otsest
reisid
moraali
pidasin
portree
tegusid
turvali
asuvasse
ennetada
maitsega
mootorra
staatuse
arvamusel
organismis
võrgustiku
meeskonnaga
evolutsiooni
maavalitsuse
liikmesriikides
##–2
õr
##dise
##dude
##ldes
##mpsu
##pall
189
##ranna
##rengu
##tikas
##usias
Pare
algu
##kiirus
Suure
jäigi
rihma
riist
südam
##teooria
Hillar
albumi
keeras
kollee
naljad
soliid
Volkswa
haigusi
fantaasi
proovima
kriitikat
kannatavad
sportlased
otstarbekas
valmistanud
hinnanguliselt
rahvusvahelises
##ai
##py
##jöö
##rez
Nt
ny
##muus
##oost
Spe
##kavas
##oleva
Pihk
boon
keer
õmme
##ndusse
##teerib
1970.
Miche
edusa
kamba
lasen
##kogemus
küünla
Eestiga
klasside
platsile
ulatuvad
variante
looduslik
Austraalias
emotsionaalne
politseiprefe
##gise
##lade
##mula
##prog
##listi
##minek
Mets
teod
vool
##nergia
##rderoo
konna
lehti
piilu
##ndustöö
import
tänada
hulluks
hüvasti
ohutuse
langevad
vastasin
Horvaatia
langetada
olemuselt
puudumisel
tasakaalus
tootmiseks
kokkuleppel
õiguskantsler
konsultatsiooni
##sh
##box
##õda
##rita
Aja
Gor
lasu
nood
##indeks
##juhina
##visjon
Hotel
Robin
##platsil
Ingrid
##kontsert
Pulleri
autonoo
horison
ilmuvad
näidati
tarbida
arveldus
eraldada
harmooni
mõisteti
rajamine
nõuandeid
soomlaste
valitseja
partnerite
majanduslikku
##________________
##rom
##00-1
##vitš
1,3
Fal
glü
##ustes
Kada
Laane
Volvo
kaera
korpo
seede
tõuke
##eerinud
##jaamast
##minekut
kaarte
kontor
##itsiooni
esemeid
Reinsalu
arengust
suuruses
sõjalise
Friedrich
täielikku
tõestatud
valgustus
kolmekümne
täpsustada
##inspektsioon
kirjutamise
olulisemaks
osalejatele
investeering
registreerimise
##oim
##rav
##uni
##hkli
##iiti
##ikäi
175
Nii
##arhii
##külla
Prin
hale
karp
kyll
maiu
##kuning
eilne
jääme
näole
silda
tõrva
##maastik
igasse
koonda
omadus
##ndustele
hobuste
juutide
kaardid
kolmele
konkurs
ostavad
tegemas
jalutada
kokkupõr
uuringus
aktuaalne
kaasaegne
tehniliste
komisjonile
kandideerida
kaitsepolitsei
##din
##kini
sha
neto
##aineid
##tsooni
aseta
emade
ereda
harja
ilmas
juhte
mured
pärna
telgi
tillu
toksi
vedel
##päevane
otsime
raviks
rektor
targad
videos
ütelda
eraisiku
keedetud
olulisel
omaduste
poolajal
tööandjad
politseisse
vallavalitsus
##kommunikatsiooni
Lü
ud
##mson
Sti
##paraa
##pilet
##rdeid
##stide
allo
põll
tõtt
Javas
impul
kaval
napib
parti
profi
##listega
##poolset
##võtmise
korrus
teated
##finantse
hispaan
reisija
võtmise
liberaal
looduste
tegeliku
variandi
Baltikumi
Hollandis
liikluses
loetletud
lähedased
temaatika
minimaalselt
##lov
##osi
##tki
##hkab
##kõlb
##üüri
Med
krü
##danud
##kreem
##lusse
kaan
okup
telg
vihm
võti
##jumala
halvi
lõiku
perfe
rõhku
##viimist
iialgi
kolone
muster
rattas
##agentuur
arvasid
kontrol
lapsena
sündroo
kõrvitsa
inimeseks
objektide
informeeri
vajadusest
toetamiseks
politseinike
tegevdirektor
kanalisatsiooni
##abri
##hvid
##peol
##suru
##viat
Nov
emb
##hoidu
##oodud
kagu
##meelse
Smart
suver
esmane
hüppas
kaksik
sealne
vasaku
asjaosa
piisava
püsivad
eestimaa
lugejate
otsimine
televisi
tootjate
riikidele
võrkpalli
täiendavad
##dla
79
##inus
##ksed
03.
yks
##kandi
##nurme
##varaa
Berg
käel
müts
peda
##põhise
##ringis
Rauno
lihvi
noogu
vibra
##tavates
Lihula
kannat
nõudma
püütud
reisil
ümbere
##eerimine
müügiks
nõupida
ootasid
teoseid
arendaja
produtse
sektoris
teenitud
liitumise
sooritada
sellistest
armastusest
läbiviimiseks
##ahe
##ate
##tov
##uba
##ööl
##žis
tk
Glo
Kad
##põlve
aken
laure
mulli
murdu
pipra
##paistev
Indias
keldri
räägid
rünnak
saabki
uutest
##lisemalt
keskelt
laagris
liialda
lugejad
noorema
selguse
märtsist
tohtinud
Euroopast
artiklite
eelistada
kliimamuu
käsutuses
tähenduse
kasutamisest
##kiv
##pude
##mides
##naadi
##relva
Kukk
##hituse
##värava
sobis
trükk
tähed
ületa
mõisas
##kasvatus
##plaanile
helista
hilisem
hobused
kooselu
valides
prokurör
aastateks
kirjaliku
mõtlemise
võrdõigus
hoidmiseks
tavapärane
kodakondsus
diskussiooni
tingimustele
##hir
1-
mg
##igna
##llar
May
Mul
##suuna
alge
pori
Moldo
mäest
vapra
jaapan
juhend
loevad
oskama
tasuma
viskab
##pensioni
##prokurat
Andreas
hübriid
salongi
tundide
avaldati
naabrite
usaldust
toitumise
ühenduses
kirjandust
pildistada
stimuleeri
sõidetakse
suurendamine
##beth
##erik
##külas
##nduma
##usena
Nool
doon
emal
silt
vaha
voor
##kohase
##tuntud
##kustest
taskus
üleuju
Holland
kõigega
vähenda
võtmist
Kirsipuu
eelnenud
aktiivsed
rääkisime
sugulased
südamesse
vajadused
##76
##my
##rüü
##lana
##mino
##riit
Sco
Sve
##kutsu
##vilju
Mõis
Tapa
rõhk
Julia
seesu
targu
vihka
hinnas
keelte
sigare
##ikeskuse
##kaaslane
hindama
bussipea
rikkunud
teemasse
tõlgitud
vastaste
üksikuid
##piirkonnas
kokkuhoiu
toitumine
unikaalne
moodustati
vabadussõja
##42
##õl
##mag
##tuul
emp
pat
##matki
##osade
1940
prii
raku
##hvelar
helge
pitsa
euroop
riiete
teades
tõusma
isikuid
magamis
maraton
veteran
##kasvatuse
Kopenhaa
garderoo
üleminek
iseseisev
stabiilne
##probleemide
õpetatakse
konkurentsis
##ktu
',
€.
##date
02.
14-
Der
Lää
Mis
Musi
mant
müür
##aatori
##kaarte
##oskuse
inims
Jaapan
Münche
igatse
pritsi
dünaami
korstna
osaluse
soojust
tuletab
uurimus
välista
võitjad
eksporti
kantsler
kasutust
osakaalu
tahvelar
asjaolude
kinnitati
operaator
postitust
sooviksin
võitluses
ainulaadne
riigikohus
tulemustest
akadeemilise
põhjalikumalt
suurendamiseks
##ngo
##bast
##erid
##just
!!!
Lõh
Pin
##eroob
##selgi
##video
kibe
lamp
##gruppi
fakte
kiida
eelnev
laenud
netist
pangas
Toompea
kujutle
tundsid
ülevalt
##maatilise
hoidmine
juhtumit
kohtunud
kohupiima
teistesse
võimaldas
võrreldav
inspireeri
toodetakse
sotsiaalset
taastuvenergia
##31
##kot
ph
üü
##main
##ruut
##nurka
##pedag
Raid
saht
##kterid
2018.
eilse
kammi
vabas
aresti
betoon
lugege
sissea
tõusid
##koormuse
peatükk
sagedus
üldsegi
##direktori
hingamis
katoliik
millalgi
sedasama
aastatuha
aktiivsus
läbimõõdu
toetamine
tuhandete
külalistele
projekteeri
sotsiaalsete
tavapäraselt
riigikontrolli
##nie
##pon
Yo
##stem
Vis
žan
##seina
Inge
##minali
elast
fotol
huule
##ndidest
##tavatel
etappi
käskis
##piirangu
hektari
järgnev
kõnelda
tulekut
täiuslik
järeldada
neljandat
juunioride
korraldama
lõpetamine
keeruliseks
arusaamatuks
renoveeritud
##investeeringute
##cas
##the
89
Gö
##ridi
450
50.
Ari
Emt
##antud
##htaeg
##ngeid
##proov
Kasa
anta
##ehitus
##pinnal
##kulusid
##osakond
Rebane
armsad
erandi
lageda
mikroo
veenda
vigade
ajakava
lootsin
portfel
asutused
esimesse
etendust
isiksuse
keskpank
usalduse
üksikute
ametlikku
komplekte
toidulisa
elektriauto
##redi
Lad
Net
len
##genti
##kamad
##tavus
West
ebaa
jaht
kiiv
söök
torm
##missar
##omandi
##steroo
bruto
oskas
soove
aimata
invali
mehest
muutes
äikese
eelarva
repertu
sõnumit
tekstid
##probleeme
##varustuse
alustame
eelmiste
pääsevad
taotlust
enamvähem
sajandist
alustasime
ametikohta
ümberringi
varasematel
integratsiooni
="
##baid
##demo
Ase
Oly
##aasia
##ikind
##külge
##paber
##mmenta
##mudeli
##üritus
karus
loksu
Annika
bussid
leidus
oliivi
peidus
saaste
edasise
langeda
põhinev
sealsed
toetaja
tööturul
erinevusi
metallist
seisundit
kannatanud
telefonikõ
võimaldada
kutseharidus
##iii
##tat
##you
##turi
Nba
Ots
Vor
ige
Mona
jõge
sodi
##litega
##proovi
##taalis
Ameri
Kopli
Monte
hange
istme
lilla
sibul
tehas
hasart
ilusam
laevad
müüvad
täitev
õigeid
##ndustest
##versioon
insener
välisma
liigselt
peahoone
kaitseala
seminaril
valmistas
negatiivse
reageerida
kakskümmend
positiivseid
##41
##cht
##kop
##now
pm
##hter
##nias
##sõnu
##teki
amm
igi
##umide
Arno
Oleg
Põld
rabe
supp
sünk
õpik
##lauale
hoian
strei
sööki
##ruumide
Leader
hüpata
liigid
Charles
Kanadas
ilmusid
poolaja
Sotsiaal
igaühele
osutatud
rahuliku
tähtsuse
varieeru
lõpetatud
mõeldakse
ettevõttel
kaitseliit
peapiiskop
presidenti
valmistama
kirjutamine
mootorsõidu
elanikkonnast
##49
##kää
##zhi
Ae
##kell
##raga
Coo
ust
##aator
Inte
Kane
Pärn
hügi
küps
nõme
olme
parv
skaa
##ntsuse
##täitja
Veiko
arene
mõõte
nutma
sõima
Hetkel
Johann
häälte
poolte
tänast
võrdse
eksklus
firmale
väsimus
Rootsist
nõustuda
poodides
pühapäev
viimasena
järeldused
kriitiline
identiteedi
vähendamise
integreeritud
Xi
Pas
##stile
##toitu
2500
käru
tahv
vedu
##lejate
10-15
Green
Osale
jälge
konve
talla
teaks
Ehitus
ehitas
kiired
mainet
allikad
korjata
nõudnud
ohtlike
parimal
väliste
eluviisi
kehalise
kujutlus
kuritegu
pileteid
teadlane
võitlust
meetodeid
sümfoonia
toimumise
kokkupuude
valitsemis
vastupidiselt
##dav
##phi
##rot
##uue
##oska
##popu
##skee
Ivan
##ruumid
##suhkru
kodud
Emajõe
koguma
##aadressi
asuvate
omandas
paberil
pikemas
suhtuda
ühtlase
Liivimaa
esialgne
nõudmised
teavitada
Hollywoodi
ettekandja
programmid
protsessid
samasugust
tõstmiseks
kokkuvõtteks
##hop
##itz
Bc
Jk
##toril
Step
seob
tiba
##guselt
##häired
1988.
hääbu
lühem
tehis
##kogusse
Joosep
linnad
summat
survet
kodumai
kutsume
küsitud
lubasid
pidulik
teadagi
uurijad
visuaal
##kirjeldus
##sekretäri
kõrgemat
pidanuks
rahalist
valmistu
isiklikud
kasutusse
loomingut
palestiin
pealtnäha
ambitsioon
kohtumised
põhimõtete
motivatsioon
##õnad
Een
##adile
##lidel
Kadi
käär
reas
##asutus
läbib
paugu
usume
veise
##liklubi
##turniir
Rasmus
edukad
firmat
fotode
laulis
arendab
asetada
juunist
klienti
kortere
mõnusat
Võrumaal
arvutada
ebamugav
kahetsus
põgeneda
homoseksu
kergemini
tagajärgi
ühinemise
kriitilise
muljetaval
opositsioon
väljastatud
esindajatega
reformierakond
##nite
##ssel
Ast
arm
Isla
Kodu
Kose
sihu
##seeria
lämma
serve
tanki
väite
##eelarve
lisand
parasi
sissel
skepti
tehing
##kasutuse
##meetrine
##menetlus
kartsin
kuuluju
äratund
##kirjandus
föderaal
tegelasi
venelane
inimesena
läbikukku
vastavaid
küsimusega
##1-
##ava
##plu
Et
Ty
Big
Mur
##tavam
jõhk
riiv
sõin
taan
##tumine
1960.
Skype
alata
kõhtu
püügi
sidus
##tatavad
avanes
tiitel
värvik
##kaardiga
##keskuste
##vastaste
elamist
erivaja
hingata
odavalt
tänavad
väärika
saavutus
sõltuvus
tõsiseid
tõstetud
huvitavam
taotluste
tõestanud
väiksemat
Jugoslaavia
majanduskasv
poolfinaalis
lähitulevikus
professionaalne
kk
##alas
##ngil
##nner
Rõõ
hunt
##lisema
1920.
evaku
##11.2011
##pärandi
##ühingud
hoonet
kampsu
külast
piibel
suunab
teosed
trooni
ohvrite
olemist
vaimset
eestlast
kaitsevä
lisaraha
täitmata
Kristiine
saabumist
positiivsed
välisminist
lahendamisel
##39
Ib
],
##olud
##paus
##põld
Aus
Pik
iha
lõu
off
##oniga
##panka
##parki
##reser
##ulugu
tiir
viru
##järvel
Group
Hanna
eramu
finiš
ilmne
kleit
koond
kähku
tüütu
vajas
ütled
haiged
intera
##.08.2012
elamine
eluviis
linnuse
madalad
muusiku
tasutud
hõivatud
lepingus
vaatasid
kasvatuse
lahkumise
ligipääsu
mitteamet
mõtlemist
unustatud
eestikeelne
piirkondade
tehnoloogiat
registreeriti
kompensatsiooni
##xe
##-25
Kö
Pö
##lend
##sula
Gala
võru
ülbe
ainet
keeli
madra
normi
lilled
oskagi
prints
##avalduse
algatus
edukaks
huumori
igavene
kaastöö
tegurid
toiduga
õpetama
autoriks
ebamäära
imestada
maksmata
vajamine
võitlema
##volutsioon
Eestimaal
tegelaste
tuttavate
hoolitseda
meeldetule
nägemiseks
prokuratuuri
süüdistatakse
##ora
Uu
##müük
##tark
Tat
aid
##suusa
nyyd
siku
##aastat
##reside
Vaher
kalku
valvu
##kadeemi
##protsed
##põranda
puhtad
baseeru
elektro
juunini
niiskus
palavik
õhtupoo
##ditsiooni
##kaaslased
aastasse
abiellus
aktsiaid
installi
kahjulik
kasvasid
ligipääs
Microsoft
esinemine
hispaania
iseäranis
ressursse
vägivalda
soovitavad
võrdluseks
##aks
Oe
Rõ
##eali
##otüü
##rikk
Lhv
pap
pse
sen
##kaudu
##viisa
Caro
Ensv
##kamaks
##toetus
##vadele
Harku
Toome
eales
hundi
käime
lõigu
ründe
##inimese
##kogudes
Paulus
komand
märkas
vanust
välist
elamise
keskmes
kuumuta
läbitud
puuduta
tähtsus
vertika
esinesid
seitsmes
taotlusi
kulutuste
sportlane
Peterburis
oktoobrini
rajamiseks
võistlused
korrektselt
maailmameist
sihtotstarbe
suurepärased
vastutustund
##ach
##hho
##rve
##hvet
##lani
Dal
One
aha
der
##lehes
##niste
##pikku
##stalt
Bloo
emis
paat
seen
sünn
##tumise
heale
plats
pudel
rasvu
õudne
##andmeid
##fondide
Invest
segane
##olukorda
enesete
jaapani
jooksin
juhtunu
satuvad
jõudmist
kasutage
kujuneda
liikmena
nooremad
sündmust
tundunud
##keskkonnas
esimeheks
pangandus
partnerid
vastamisi
##konverentsi
kaubanduse
telefoninu
valitsusel
professiona
turvaliselt
rakendatakse
vabatahtliku
##elo
##hib
Rud
kih
mal
##ikuse
##itsis
##kkeri
Ekre
Play
##keelse
Praha
hinne
huumo
rõnga
vanae
##ktiivse
##lisemad
algaja
näpuga
preest
ujumis
isikust
kelleks
kuuldes
küsivad
mehaani
olevale
pealinn
päästis
##professor
taevasse
tänavalt
jõuliselt
käivitada
määramine
põrandale
efektiivne
ressursside
õigusaktide
korraldajate
korraldamisel
{
##ory
Mt
##ngas
##nism
##pikk
105
Mae
##minaa
##ranti
##vaate
##vaimu
Viet
sisi
Marie
hõlju
mindi
tegel
##kordset
##väärset
##üksuste
jõusaa
mittes
pinget
toimis
tsükli
Youtube
sponsor
uurides
esinemis
katoliku
parameet
tendents
õpetajat
ehitamist
tunnustus
väljakuju
juurdepääs
kohtunikud
tunnistati
väärtusega
olulisemaid
populaarsust
valmistamise
strateegilise
##võõ
##äis
//
##iiri
##poodi
Tour
kant
Nelja
hõlbu
surra
tahke
##ksembur
Donald
Kristo
intiim
mugava
pakett
##........
pakkuja
avamisel
pidamine
haruldane
kodumaale
alustatakse
arhitektuur
avaldatakse
kriteeriumi
valdkondade
migratsiooni
seadusemuuda
regulatsiooni
##andu
##sant
##enuse
##kesta
##plats
##tooli
Osca
Vaht
eine
golf
ühil
##teeris
Lissa
Rober
peidu
##liikide
Ateena
iphone
liigse
linnal
iseloom
kallist
maitseb
maitset
määrust
tugevus
hüvitise
külastab
lisatasu
mängitud
tahtsime
esitamine
roheliste
territori
##järelevalve
lennufirma
pangakonto
presidendile
kättesaadavaks
##dor
##pub
##ania
##käit
##pike
##tani
Aud
lör
##ained
##ktiga
Fina
Kase
Nasa
Rahu
sile
trag
##teater
klave
rahus
seire
vürts
##10.2011
hunnik
kraavi
säilib
terves
raekoja
saatsid
seltsis
sisserä
toodang
Erakonna
kõrgeima
peredele
rahalise
vastavas
##lisatsioon
Sloveenia
esindavad
kirikusse
koolitusi
miinimump
minevikku
toimimise
kosmeetika
parandamine
registrisse
vabatahtlike
##nko
##ssis
##veli
Shi
sün
##.2004
##krist
##proto
##resse
##viima
auks
kann
##orkest
##riista
efekt
igalt
##01.2011
Valeri
asuvat
müünud
tarkus
funktsi
haigeks
mägedes
värvide
##tsioonist
allahind
auhinnad
enamuses
meeldima
rajamise
suuremal
tänavate
aktiivset
maailmatu
pedagoogi
aktsepteeri
säilitamiseks
õiguskantsleri
Vt
##esia
##hika
##värk
Ola
Sen
Sun
##alist
##inest
##lesid
##lükka
Miki
Viki
müüg
õlga
##ohutus
1944.
Parts
Toron
liimi
rolle
turba
##joontes
arvama
sinise
Telefon
aktsiis
esmaabi
hinnaks
muutust
pingeid
raskeid
õunapuu
Mercedes
jätkuvad
kroonise
lemmikud
lõpetama
mitmetes
pääsesid
sisekuju
arvamused
harrastus
lähedaste
osapooled
teadustöö
tekkimise
viimasele
eestvedaja
erasektori
novembrist
üksteisega
identifitse
kogemustega
lahendamine
manipuleeri
lapsepõlvest
järjekordselt
##bru
##cie
##tõu
##vih
##eeti
##sepa
.--
Aht
##pasta
Aude
Eric
Kask
saal
##eskuse
Chica
alade
hõimu
juube
kivid
kummu
põles
skeem
##12.2011
##lehitse
##stustes
##vabadus
mõnegi
osades
alljärg
pidevat
pronksi
##töötajate
piparkoo
augustini
lepinguga
seadusele
tagajärge
viinamarja
õnnelikult
":
Ky
##kori
##ntsa
emi
rau
##tuppa
Vare
huul
läti
##aladel
##ndavat
ahjaa
kahva
kuive
mütsi
norma
rooma
toeks
Lissab
kindra
pideva
##poolsete
arstile
kõneles
mõjutas
reaalse
tehases
langesid
parajalt
##ettevõtete
aastatest
tuttavaid
eksklusiiv
meenutavad
perekonnas
üllatusena
koostatakse
teenusepakku
ettevõtjatele
tasakaalustatud
##43
##bour
##tive
Uku
tir
##ikesk
##koore
##risto
Hugo
tiim
šamp
##hetkel
Endla
Kalda
Liisi
Samsu
kuude
püsik
vääna
##küsimus
Seltsi
alasti
raketi
turult
uudise
##kontroll
peenike
soodsam
tänavat
üllatas
jälginud
jõupingu
pööranud
teistelt
##gümnaasiumi
helistasin
kohalikule
kütusekulu
praktilisi
ülikoolide
mootorratta
##ogi
##bide
##gias
##niit
##peed
5-6
Cou
noa
tüd
##pedia
##pooli
##tsede
Urve
akse
##kadest
##stajat
kesko
uhked
##ndumine
Simson
Triinu
keisri
tapeti
vastan
##kroonise
Francis
mudelit
muudeti
ostmine
püüdsid
sukeldu
suverää
säärane
##koolituse
Venemaad
kindluse
läheneda
meestega
reaalset
seltsime
kirjutaja
kohalikel
kristliku
mängijaid
määramise
seljataga
tagurpidi
kihelkonna
taastamise
transporti
tunnistust
tõlgendada
ruutmeetrit
spordiklubi
olümpiakomitee
##ado
##gun
60-
Eda
Jos
Ros
##nberg
##viina
Hele
Karo
mett
##jaamad
##ooteid
Elmar
Liitu
Tšetš
hülja
rullu
viise
õudus
kuldne
kulges
püüdes
roolis
vedama
##gümnaasi
detaile
toimima
turisti
õigesse
õnnitle
õppisin
##materjale
jumalale
vaheldus
hirmsasti
ministrid
proovitud
sõidukite
elementaar
külastanud
##klaratsiooni
diskussioon
kandidaadid
tunnistatud
konkreetsete
planeerimise
presidendika
ametiühingute
##rc
##eek
##gio
##link
##ream
Alt
##looma
##reene
##tonil
aust
moes
mune
##isikud
##mehele
##oskust
Janek
gripi
keema
luues
pooli
##olümpia
maetud
##muusikat
eksinud
jätsime
pildiga
raskete
segadus
toidust
õiglase
Kuressaa
paradoks
sarnaneb
täidavad
volitatud
väljendub
kirjutades
lisanduvad
märgitakse
reguleerib
toetatakse
universumi
üksikisiku
programmide
vahenditest
vaieldamatult
##col
hj
##rale
##tagu
Cle
Tex
fos
##arust
##kinni
...)
1989
kaus
tsaa
viit
##joones
baari
kokte
osana
promo
rohtu
sajad
##ranniku
jutuks
kujuga
suurde
suveks
täitis
üheski
##.04.2012
auhinda
kirikut
reisida
seoseid
##teerimine
arvutiga
häiritud
kirikute
kohtusid
lavastuse
täitmisel
impeeriumi
meeskonnad
tingimusel
teistsuguse
##bro
##haka
##tsep
eur
õed
##ikate
##rinna
Hong
Jack
Mary
issi
kola
mähk
müüt
rönt
viir
##nditud
##reform
impor
renti
sipel
##kaardid
asjana
hoitud
temagi
veebis
##teaduste
kogumik
majandu
meloodi
rõõmuga
tundlik
Kultuuri
lootuses
tulevane
rahvusest
teadlikud
uuendatud
uuringust
prioriteet
sellistele
tegutsemis
keskendunud
takistuseks
reguleeritud
institutsioon
deklaratsiooni
nädalavahetuse
raamatupidamise
##ikar
1,8
##liigi
Teet
intu
laba
tari
tril
kliki
nõela
tehtu
##meelsed
Ansipi
arvuga
katsel
ristis
toimiv
tomati
seinale
signaal
tõstnud
basseini
mängijat
naiskodu
tõmmatud
minevikus
toimetati
vahetanud
vitamiini
väljendab
katastroof
valitsuste
välismaalt
horisontaal
lahendamise
vallavanema
ajalooliselt
##ellu
##krii
##neni
##usku
)..
##koodi
##mahla
##pital
##raani
##ruudi
Smit
jazz
##bereid
##langus
##tumist
Siber
isaga
kaali
koole
kulul
kuuro
servi
halvem
kamina
psüühi
romant
rutiin
varade
##.02.2012
##väärtust
Content
hinnast
jõudude
korrale
mõtleme
puhkama
##hetsheeni
alagrupi
kuivanud
plaanide
tullakse
võõraste
Berliinis
harjutusi
pisikesed
tähistada
järgmisena
partnerlus
pensionile
septembrini
ameeriklaste
veebilehitse
91
sm
##hobu
Don
daa
##psühh
##raapi
##tulek
##ugeot
...?
Digi
Feli
Fire
börs
lust
muld
Võrus
soost
##meerida
##pärased
##tervise
trükki
vaikse
##varustus
asuvast
kinkida
käiakse
küllaga
sobinud
kinnipee
samanime
suurimat
töörühma
ajalehele
kahekordi
kantselei
kasulikku
lõpetasin
hilisõhtul
koolitused
koolituste
lähenemist
praegusest
sertifitse
vigastatud
asekantsler
füüsilisest
küsimustega
keskkonnamõju
kollektsiooni
##gma
##ita
##gori
Rio
##katel
##mulje
##ningu
##puhku
##äheda
Savi
keti
papa
soja
Patri
kisku
kõigu
püsiv
kasvav
kaunid
nupule
trassi
heataht
hoiatas
klubide
mingile
olevast
palunud
võimete
arvukalt
teekonna
vahetust
varustuse
üritustel
kodanikele
vanematega
altkäemaksu
määratletud
tegutsemise
##õe
##ikä
ep
••
##ikir
##keri
##reks
arg
iso
##banki
##õppes
Tony
joob
sosi
##paraat
##sektor
augud
emane
surus
üleni
Gunnar
hoidke
kogust
kohtab
kombin
merele
tõstma
värvit
##väärselt
Iisrael
alustel
araabia
kalliks
kardina
kasutad
mänguga
palkade
peastaa
pöörama
tõestab
valgete
väitnud
ehitanud
naeratus
otsusele
profiili
punktide
rohkemgi
toetused
tähtsaks
esitamist
koguduste
kontserte
mälestusi
mõtlesime
vitamiine
Washington
kommunismi
riigihanke
detsembrini
inflatsioon
kunstiakadeemia
täiskasvanutele
##68
##sky
##vli
##mark
Ori
hie
##berku
Gali
Lake
Mats
Olev
kops
lame
mehh
nuga
pais
##järgse
##lisega
##tluses
Power
Premi
steri
##ndumist
##nurgast
##paikade
otsing
##teraapia
hetkega
kuuluda
lehtede
raporti
seistes
##aastasele
##tsioonile
aegadest
kuulutab
rehabili
vaatluse
##planeering
Tartumaal
läbimõõduga
samasugused
vastupidist
ajavahemikul
kombinatsioon
/?
##kova
##orus
##viir
1,4
Oju
Tim
tük
##kaani
##kaela
##nemas
Irli
Twit
ohus
krunt
meigi
sassi
##staksid
Katari
allvee
regula
##maratoni
Kallase
määrida
mõistet
mööblit
tõsised
##teerimise
elemente
lugejale
parteide
veerandi
##tingimuste
avalduses
avalikuks
omapärane
õnnelikuks
konkurendid
negatiivset
##/7
##hver
##rede
17-
##järgi
##russe
1920
elad
pühk
##likute
empaa
juust
kaupu
kursi
leegi
punni
pööre
##portaal
Kremli
haarab
juudid
otstar
pärand
soovil
tappis
##.05.2012
##.06.2012
kiirgus
kirurgi
käituma
kümnest
märjaks
oksjoni
valivad
kallimad
tasemega
bioloogia
kallimaks
karistust
loodusest
printsess
normaalset
põhimõttel
investorite
märkamatult
nutitelefon
perspektiivi
usaldusväärne
olümpiamängude
registreerimis
##ip
Kr
om
pl
##maju
##müür
kai
##haldu
##pausi
page
read
Stato
ankee
kimbu
masse
täidi
##elektri
Univer
kantse
otsese
paketi
pardal
tavaks
vaated
vihane
üürile
ebasobi
menstru
olemuse
taskust
klassist
kuulates
minutiks
momendil
mõningad
sajandit
traktori
##materjalid
iseendaga
pakkumised
kohtuotsuse
probleemile
isikuandmete
rahvusvahelisi
##ose
##biti
##cker
##hape
##mälu
##ness
##tunn
##konku
##korvi
##tuled
oksa
paka
sean
õied
##vabalt
##vägede
koopa
lahje
mölla
sirgu
##laagris
##õigused
Varssa
asutas
märkus
tootma
Peugeot
massiiv
pannkoo
punaste
elektron
heakorra
magneesi
##festivalil
##konverents
Pärnumaal
hoonestus
kutseõppe
loomuliku
paranduse
tugevamaks
##89
##qua
##sii
##võlg
pöi
##aliha
##võrku
Gold
jogu
pune
real
##ndudes
##prokur
hüper
linde
lumma
rassi
teost
tsükl
vabri
##samblee
Kaspar
pagana
salati
tuleme
##liseerib
allergi
assiste
jõustub
kasiino
laupäev
maapeal
noorele
vanadus
võiksin
teatakse
ööpäevas
algatusel
andmiseks
kaupluses
mõistavad
kolesteroo
protsessis
kuuldavasti
majandusele
}}
##kuma
Ava
##llist
##maaja
##tions
##ville
1988
Anta
Inno
Kaas
Maal
balt
line
oope
sots
laisk
marju
esikol
olengi
püüdma
rattad
##tamatult
Jeltsin
holland
mängiti
teenist
viibida
kümnendi
täiendav
õigusega
andmebaas
atmosfäär
rikkumine
asjaolusid
keskkonnale
kommenteerib
valmistamisel
##tic
##zhe
##ffia
##hase
##hkna
##kkis
##ktis
##vähe
Õpe
##jaloo
Pika
samb
ökon
##meedia
##reeris
##tamast
##tunnid
masti
##normaal
Maardu
kuniks
maksum
moodne
tühjad
folkloo
kandsid
keeldub
keelega
seemned
sõidame
arvestab
ettearva
kasvatus
kristall
oodatust
publikut
sobivaid
##kategooria
kasulikum
kultuuride
prügikasti
religioosse
kuritegevuse
ebaõnnestunud
erivajadustega
##xx
ed
##iden
##isel
##toli
Liv
bur
siu
##poisi
##rajad
##riike
1960
Mala
##alaste
##ndasin
##steini
##stusid
1930.
ajale
jahva
relvi
tarka
tõugu
kartma
kuulen
peaosa
riiuli
##keskused
##teadlane
katteks
vastast
##kondadest
heegelda
kehtinud
konstitu
võitluse
##ikomisjoni
igaveseks
raskemaks
tervishoi
varasemad
pealiskaud
teeninduse
kõrgetaseme
alternatiivi
garanteeritud
##/5
##sf
##mut
Uv
##cola
##koni
##kost
##äkki
Pat
##stiili
##uuride
Malle
Steve
Väino
Välja
käsil
uskus
##levinud
Roomas
asfalt
eraelu
kaasne
leiaks
riskid
##punktide
##teenused
intside
kahtlen
lõppeda
ootamas
staatus
suudeta
jalgpall
soomlane
pingutada
siinsamas
suuteline
vaatamist
veebruarist
ringhäälingu
järjekindlalt
##cer
##hoia
##töid
Alu
##lesin
1944
Kala
Kuld
##tehtud
##tisega
Ratas
alale
ports
süles
##liitude
##objekti
Helsin
brändi
jõustu
klõpsa
pehmed
puuris
suvine
##pealinna
##raamatut
##väärtuse
languse
serveri
dirigent
eeskujul
enamikul
hüvitist
kaardiga
kõiksugu
külastus
saabuvad
vastsünd
väljaanne
##teaduskonna
suunatakse
väljaselgi
üritatakse
funktsioone
kasvatamine
riigikogule
evangeeliumi
##----------------
##ede
##jäe
##trü
##zin
##onen
##ossa
##sese
##jaile
Aino
komi
loto
napp
rata
ripp
supi
1939.
lahja
pihku
##päevale
ehitis
jutuga
siinse
sümbol
tainas
auhindu
kadusid
koosnes
nägemus
paigast
rongiga
tagasia
ilmtingi
jalutama
lendavad
põgenike
teravalt
tugevama
tähtsaim
õpinguid
Läänemaal
põhimõtet
süüdistus
ümbritseva
kujundamisel
politseiamet
sotsiaalmeedia
##iir
##asta
90.
Uno
õnd
##iness
##piisa
##pojad
daam
lõhk
maid
usin
Kerge
Risto
jõule
näost
tulud
##advokaa
ajavee
krossi
kuudel
legend
mägede
##erakonna
##kunstnik
taolise
tegelen
trepiko
ümbruse
Draamate
Swedbank
tagamine
tõstmise
töötasid
hinnangut
kohapealt
kõnealuse
riiklikku
tolliamet
töödeldud
Facebookis
intervjuud
meeldivalt
toitlustus
igapäevaelu
vastuvõtmise
demokraatliku
keskkonnakaitse
omavalitsustele
##87
##kd
##fit
##rey
(-
by
##imar
Eek
Hir
##kella
##nault
##pommi
000-
8000
huka
inva
sood
unga
ühta
##allika
##laager
##litest
##sarjas
##väljak
Chris
Oskar
Ossin
Viini
pärja
stard
##leerida
Schuma
ainsad
arvete
ilmale
ümbera
kaldale
kauplus
klaviat
palgast
palgata
reisile
##olukorras
##tunnistus
harjutus
jõudmine
kestavad
kontakte
rahakoti
rahaline
soovides
toetasid
valikute
väljavaa
õpitakse
hoolitseb
kaltsiumi
kirjutage
lühikesed
sümptomid
tagajärje
tehinguid
väljaande
erastamise
jõudmiseks
korraldasid
##.20
";
##daks
220
Mmi
jmt
##aarde
##tundi
Peet
jupp
juut
oote
##kohaks
##piline
##pingud
##tutest
Erkki
annad
comme
istun
õppes
Manche
Rainer
Räpina
infole
saamas
võrgus
##.07.2012
##veeritud
paarisa
üldkogu
##aastasena
##ülikoolis
asjadele
avaldama
kaaslane
märtsini
turistid
Christian
maailmare
sisestada
tarbimist
teostatud
tükkideks
ülesannet
##maatiliselt
inimestelt
mitmekesis
normaalsed
teadmiseks
ülikoolist
maaülikooli
vastupidine
maanteeameti
##hni
##kub
##anis
##bani
##dame
##fred
Eta
seg
##filme
##kaeva
##stiks
märg
ritu
torn
##sterda
Maret
jutlu
lukku
paisa
##võtteid
##youtube
arsena
kammer
murtud
enneole
uimasti
jagamise
kalandus
koondada
otsusest
tahtmise
keskendus
põhinevad
kunstnikud
patsiendid
läbimõeldud
poliitilisi
õigeaegselt
õiguskaitse
sentimeetrit
Ui
##adil
##ntsü
##rism
Pev
skp
##ooted
##punäi
Mont
aura
janu
##inikus
##kanded
##tajana
Jacks
Johan
maski
ülalt
##institu
##portfel
keskea
käitus
maleva
muudel
päevil
võibki
##puhastus
Salumäe
inimlik
surmaga
vastuvä
arenguks
hektarit
odavamad
olemasol
toetudes
tõelised
Slovakkia
rakenduse
igapäevast
sportlaste
suhtlemise
sünniaasta
soovitavalt
ilmtingimata
Ühendriikides
##aart
##regi
##taha
Avo
Fia
##koali
##nsoni
Laid
Vega
hõre
jood
##kreemi
##õpetus
Liver
limas
pikas
põleb
##ndavate
##tundide
##ülikool
Boriss
karjus
kvarta
tekste
tütare
astusid
eelnõus
jooksus
maandus
maksaks
muutuse
põgenes
sõbraga
söömist
tarkust
tuntuks
töötuba
Toompeal
lõputult
sõnavara
tunnista
tõhusalt
väikseid
ähvardas
formaadis
kodanikke
provintsi
suurimaid
väljavali
tavapärase
tunnustuse
protsesside
vahelduseks
kvaliteetset
##bio
##off
##lova
115
Fil
Gil
Sem
##fiili
##jälje
##maali
Tiia
etni
vähk
##metest
##sustel
jalas
tapab
tartu
##raudtee
ehitab
kerget
soojas
##aldusega
esitlus
hakitud
käimine
kõndida
oodates
paberit
planeed
rajooni
režiimi
tõlkida
ajalehed
liisingu
pahataht
suhtlema
tellimus
##protsessis
koostööle
linnaosas
nüüdisaeg
omanikele
progressi
toetamise
##liseerimine
jaanipäeva
kasvatatud
kõrvaldada
hindamiseks
mälestuseks
peategelane
prefektuuri
kombineeritud
##-03
##cou
##rib
->
##akti
##gusi
Pea
Sie
Usd
gei
oru
##mudel
Alli
Flor
Matt
amat
jüng
krui
punu
##esinda
##õigusi
hangi
novel
##rühmade
Krimmi
fookus
graafi
oblast
saunas
väljub
juhatab
poolelt
##läbirääki
ajapikku
elanikku
hakkliha
kogumise
käituvad
sarnaste
sportlik
vaenlase
veresoon
koostööst
nimetanud
süsteemid
eestlastel
igapäevase
läbiviidud
taastamine
kõrgharidus
##bib
mei
saj
##marke
##tmist
Maie
lill
orde
##pöörde
Sulev
fänni
jutte
kivis
kärpi
ladus
levis
magas
margi
petta
kleidi
neljal
tagati
töötan
vajaks
vürtsi
üksuse
##.09.2011
Renault
elumaja
hoiatab
kauaaeg
klassik
madalal
näpunäi
ohjelda
pehmeks
segatud
tegelas
Javaskri
arutanud
jõutakse
kursusel
mõtlemis
sõlminud
tagumine
lahendama
omanikuks
selgitama
tähtajaks
tähtsamad
Postimehes
hambaarsti
mõistlikum
rahastamis
riikidesse
stabiilsus
teenindaja
läbiviimise
spetsiaalse
infosüsteemi
##fä
##00-
##lud
ui
##dini
2,4
pig
ulu
web
Easi
Leht
lige
musi
##paketi
##pitali
##tatult
Motor
järsk
esitus
juhile
sõnast
##kombinaa
##koolitus
avaldub
endiste
maikuus
osaline
patriar
sealiha
sõpruse
distants
sattusid
sõltuvad
veerpalu
##ingimustes
korrusele
lõpetasid
sissepääs
taimetoit
suhtlemist
programmiga
spetsiaalne
mitmesuguste
advokaadibüroo
##---
##äna
##kiru
##koll
##ltöö
##sast
Bab
##eerib
##eriti
Jana
Kiri
säti
##ikooli
Sulge
faasi
isane
watch
##andjate
##laatori
Siberi
igakui
kurssi
küünal
ukrain
Stalini
jagasid
karakte
sünnist
vaevaga
vajunud
ühiseid
lahkuvad
lähedane
mõistust
suurtest
südamele
õpetanud
avastasid
hommikuks
harilikult
väravavaht
üheaegselt
eestikeelse
##hra
##ity
##aias
##kahe
##koma
##onia
##päde
##raaž
##ülem
Hää
##adist
##sandi
##tempo
Nord
sena
sõlt
##kindlu
##tehase
Lukas
imiku
kumba
pruun
tabab
valed
##laenude
##piletid
##tlusele
Pihkva
Sydney
kalade
kostab
kostis
löövad
taheti
viimse
##kompleks
##lemiseks
##tegevust
kindlam
laevast
nendeks
paberid
vahetas
võimeid
##lehekülje
klaasist
kogumine
kroonist
osariigi
saadikud
soetatud
õnnetust
osaühingu
pankrotti
põhjendab
tulevaste
korterisse
objektiivi
suudetakse
uurimiseks
ekspertiisi
salvestatud
ühiskondliku
elektrooniline
##ann
##äht
##oole
##very
##voor
Agu
Vas
##loomu
Argo
Sini
Vast
maka
okas
rehe
trau
##juhiks
##mineku
esmat
jaksu
kreek
mäned
sessi
tauni
##tajatel
eelole
ilmnes
juuksu
kehast
maksti
pööras
seinal
uskuge
vormid
väited
##kaitsjad
astusin
avamise
kliimas
kolmvee
soojaks
Facebook
ajalukku
juhuslik
pööratud
saabusid
tugevaid
tähistas
valmista
vandenõu
##meditsiini
##menetluses
optimeeri
uuritakse
järjekorda
süsteemide
testamendi
kurjategija
külastajatele
välisministri
##-08
##/10
##ish
##söö
##nnel
360
Ane
bit
yhe
##ikogu
Chel
Park
ajus
aute
lait
##piiril
jõuad
laser
liita
püüti
stere
sõime
##ratoori
##vajadus
ihalda
metroo
täiste
vilets
õpitud
Kreekas
edastab
neljaks
prohvet
väärteo
keelduda
puudutas
sõidukit
armastada
kaasamine
seisundis
suhtumise
variandid
esindajaid
kokkulepet
olukorrale
päevakorda
vastuvõtja
##xt
##xy
##cky
##mesi
##ming
##oste
##tero
##kange
##rooma
kõlb
nõia
##hooaeg
##isuhte
##kimine
##ndaali
Pärna
isale
lahka
nööri
pessi
##12.2010
##rünnaku
kartul
omanäo
##kliiniku
##pidamise
järgima
kutsuma
resulta
##probleemi
Clintoni
allikate
millisel
tagamise
teekonda
vaimulik
##keskusesse
Luksembur
toimuvast
toodangut
vabadussõ
ebaõnnestu
kauplustes
postitused
turvalisust
realiseerida
emotsionaalselt
##lm
##san
##tml
Cy
Mr
Ms
##biks
##gula
##legi
##mbia
##numi
##raam
##tüüp
##vood
40.
##istel
##likaa
##seade
##tükki
1941
Mike
##ndidel
##nõuete
##saarel
Pohla
arved
kirde
nähti
palav
põhis
tasus
võõrk
##laevade
##meetodi
##orralda
##rahvast
Sandra
esemed
eurole
ilmast
kloost
laager
läänes
lükkab
rikkad
soovit
tolera
ärevus
##nistused
##rannikul
##tegemise
lahtine
laieneb
magusat
piletit
riskide
saatsin
sõlmiti
värviga
##hnoloogia
##seerimine
punktist
toredaid
treenida
üllatusi
kommunaal
rahuldada
takistusi
valimisel
kolleegide
universaal
delegatsioon
kolleegidega
kehtestatakse
kõikvõimalikud
##iin
##nku
##mmat
##omad
##ulle
##uska
voi
eroo
kuis
lepa
rull
##nimega
##nõuded
##valmid
kisub
leeri
pitsi
sünge
##varaare
indivi
instin
laseks
meiegi
nutika
näidis
tütart
##mainitud
##robotite
Clinton
Otepääl
jahutus
jätkuks
külmaks
takista
##lahenduse
agentuur
kiidetud
reitingu
sadakond
siseneda
sõnumeid
teisalda
tervitus
tuleneva
õhtusöök
##oloogiline
muusikaga
postkasti
tööpuudus
sissemakse
üldharidus
ettepanekul
juriidiline
teistsugust
nädalavahetus
##iew
)"
Hü
##ehit
##torn
Kõi
Les
Voo
Web
ann
##sarna
Bara
tibu
tõin
##päevil
##töötle
##võtted
Roosi
Rõuge
poegi
üldar
Bosnia
juhina
mööbel
osteti
teoste
täpsed
ühised
##üsteemid
juhenda
kolinud
prillid
siinsed
üritada
eelviima
kaotasid
kompanii
lahkumis
summasid
vajutada
Pullerits
analüüsis
esinemist
kogunevad
käepärast
maailmaga
süüdistab
eelarvesse
Washingtoni
erakorralise
nutitelefoni
##84
##zar
##kiit
##mmet
##siiv
Bob
Cli
##keemi
Colo
Spar
näpp
##grupid
##indust
Henri
oreli
rände
suupi
süüte
##pindade
Nestor
maikuu
moment
puhuks
tulime
kasvava
tulenev
##võimalust
##üsteemist
Vahemere
kaotavad
kaubelda
tagajärg
##süsteemide
meelsasti
geograafia
postituses
sõbralikud
detsembrist
inspireeritud
##kaan
##tahv
##ajaks
##isala
##sside
1939
Adam
Alle
Land
poti
reba
sale
äike
ülli
##andmed
##efitsi
##kabine
##pangas
##pildid
jätke
peita
sihik
taasa
ujuma
vaaku
##ttidele
diagno
eemalt
muudes
saadav
servas
vennas
##oloogiat
##ruumides
jätkame
maavara
muresid
nägemis
peamisi
seniste
õpetuse
##väärtuste
kogustes
ristmiku
tugevate
täpsemat
vahetati
Lasnamäel
vaatamine
Ossinovski
loodusliku
otsustatud
täheldanud
vormistada
massiliselt
stabiilsuse
säilitamine
efektiivselt
kinnitatakse
konkurentide
tervisekaitse
maailmameister
##29
##rr
##-01
##püh
##sib
##zza
##inni
##segu
##vits
Jal
ere
##mehel
##stena
Elis
ebal
komm
nats
puge
##erunud
##kütuse
##nurgas
##toloog
Jelts
abinõ
jahti
kosmi
kurgu
trump
vales
##haiguse
##ikontro
##märgiks
maheda
ravile
äärest
##liikluse
##vabadust
jooksid
vastand
hoolduse
jälgides
järgides
nimelise
osariigis
peegeldab
sadamasse
vedelikku
neljandaks
seitsmenda
analüütikud
tutvustavad
suitsetamine
peaspetsialist
\"
##lass
##osse
##raks
##rani
##sent
##taki
Lut
Puu
Thu
##ilugu
##külma
Imre
Kris
Stan
jope
viil
##kontor
Endel
Servi
kokka
konsu
tiksu
eluloo
faktid
labori
muudki
seened
suhtub
teleri
viljad
ööseks
Ferrari
indikaa
minevik
näitena
viidata
##kriminaal
##võimeline
Pärnusse
enamikus
isiklike
kolhoosi
miilitsa
noortega
vahelist
ülekuula
kolmapäev
maastikul
vaatepilt
##programmide
üldjoontes
poliitikast
suurepärast
kaitsejõudude
iseloomustavad
_
##day
##had
##orf
?!
Uk
##puid
##stre
##velt
##võtu
Aeg
Ikt
Roy
Spi
Vää
##harja
##llide
Laur
kaka
sita
##mõõtme
##nutele
##trahvi
loote
pudru
üleöö
##hommiku
##tsusega
joobes
keerab
küündi
raport
suvila
tahagi
##eerimise
##meetmete
aspekte
häirida
peamise
riigiga
sekkuda
Ülikool
filosoof
paratama
suurtele
tingimus
Ekspressi
kohalikul
koolivahe
mänguasja
müügitulu
võistlusi
kokkupõrge
kristlased
tunnustada
külastajate
populaarsed
kuulutatakse
riigihangete
läbirääkimistel
##kna
##sam
##buse
##lege
##riat
Rau
Sho
Võr
kõõ
osi
##ikast
Miss
süge
Šoti
##nikuks
##seisus
adres
käidi
pädev
ravis
##liinide
##sionaal
##stajale
Edward
jätaks
kaelas
neisse
rahvad
##kvalitee
##raamatud
jaguneb
osutada
stardis
tiitlit
tööõnne
haigestu
jaotatud
korterid
meetodit
orkestri
pedagoog
peitjale
soovisid
juhtimist
komponent
lepinguid
neljandal
pidulikult
purustatud
kasutamisega
vandeadvokaa
##hy
##die
##hre
##ror
##ljel
##play
Pit
Tea
##demar
##hinge
##vangi
##voodi
1930
Just
Linu
insu
käid
mobi
pahe
puus
##ametis
##larise
Liibü
Singa
briga
eheda
kõver
rahas
veera
##ktorist
##reeglid
Hambur
hobust
kümned
laiema
##lahendus
esinema
jätkama
rektori
ridades
tõlkija
##piirkonda
##statavate
algatada
eelarvet
kontrast
masinate
niiskuse
paarsada
pidamise
uuendada
arreteeri
artiklist
elemendid
euroliidu
kaugemalt
koguduses
kujutavad
pingutama
riistvara
teistpidi
vaikimisi
valmimist
kandidaati
käsitlevad
kättemaksu
parlamenti
jalutuskäik
loogiliselt
selgitatakse
Föderatsiooni
individuaalne
##zzi
dl
##nsti
1,7
2,2
Isa
Sau
est
##.2006
##isite
##pteeg
100.
Aadu
Sano
etno
kuma
satu
##kanali
##suhted
Maire
spord
vaiba
##kandeid
##ntsüklo
mõjuda
möönis
oksjon
püsiva
Kuusalu
edastas
hädasti
mõõdeti
palusin
summast
talveks
tekstis
tuumaja
tõsteti
väravad
Aafrikas
erilised
kavatsen
kehvasti
põrandal
sõdurite
vasakult
esinemise
seekordne
väljakule
hindamisel
kasutatava
asendatakse
maksimaalse
kohustusliku
orienteeritud
territooriumile
##vic
Pc
##enäo
##leti
Cat
Pur
Tas
fli
flu
tsu
##aasja
##maast
##msalu
##respo
1950
Kiie
Mika
topi
##tlusel
Kuuba
Saudi
puitu
sundi
blokee
hoiame
tänini
vampii
astudes
liidrid
liidule
müügiga
plastik
taotleb
tegelev
töötava
ühtäkki
##liikluste
Telefoni
eeliseid
eelistan
lahkudes
sõitmine
taustaga
õppimist
##programmis
arvestust
avaldasid
nimetavad
noormeest
rakendust
selgitusi
volitused
ühtekokku
ühtekuulu
ministrite
Stockholmis
omavaheline
pensionärid
programmist
võimalikust
naisterahvas
vastuvõtmine
immuunsüsteemi
##-07
##iso
Fb
Wo
##fone
##sche
Jää
ott
##.2005
##alale
##lauas
##messe
##treen
Maro
Para
Stef
jura
mudi
nälg
rivi
soku
1941.
Kevin
Music
esikü
kated
kuume
värva
##filosoo
etapis
jutule
pakuks
pastor
väheks
##ehitatud
aiandus
antenni
arvutus
jaganud
juhatas
kulutab
lükatud
sättida
valisid
##ttevõtted
##vastaseid
Euroopat
avanevad
finantsa
järeldus
kolledži
määruses
tundusid
lootusetu
muutumine
paragrahv
sedapuhku
täpsusega
valitseva
##liseerimise
tähistatud
säilitamise
konstruktsiooni
Ry
##hile
##mood
Lot
Rad
Ren
Tau
vas
##bitse
Joel
Wolf
fail
irvi
##ctoria
##kiriku
##tikute
##tudega
avari
merre
viite
##pinnast
##tooteid
banaan
kestel
lauset
lootes
reaala
sammul
varise
##hüvitise
##kindlust
alumine
andekas
dimensi
umbusal
##keskusest
##pakkumise
##raamatuid
hooldust
inimkond
uurimuse
vahetuse
vanasõna
värskeid
aprillini
hambaarst
kahjustab
seaduslik
tavaliste
abikaasaga
külmutatud
osatähtsus
pooleteise
suuremates
sätestatakse
keskkriminaal
##fc
Ya
##nõue
##puhu
Bag
Des
Erg
Sor
idu
nah
##paiku
##tsite
Aarne
Allar
Merko
funda
nihku
panda
penal
##üsteeme
Jelena
kivide
korrup
##ttevõtja
asendis
laulude
objekte
päeviku
tapetud
toredat
##liikumise
lennukit
turgudel
kehtestab
kergemaks
küüslaugu
tühistada
joonistada
vastuseisu
olemasolust
##64
##rm
##ella
##tseri
Eero
Mana
News
Wifi
kärb
muhe
peol
rakk
##pildis
Kelly
marga
muule
sinul
##nisvara
Henrik
Kaitse
Kanepi
Kangro
Valgas
elavat
naeris
rehvid
siinne
siiras
tribüü
vaesus
##berkuloo
##reklaami
Anatoli
bilansi
lendama
teostab
tööpäev
töötute
värsked
ühtaegu
##pataljoni
eeskirja
koduleht
koridori
kosmoses
lihtsaks
muusikud
naeratas
niiskust
rajamist
toetajad
##oloogilise
elanikuga
hambaravi
krediidia
kasvatanud
lugemiseks
pereliikme
taastamist
vastupidav
vastutavad
venekeelse
korterelamu
kuningriigi
rahastamine
lähiaastatel
##gli
##lib
##tah
##brit
##hami
##ises
##sure
240
Kov
lep
mer
##jälgi
##rongi
##tiive
Eeva
Lang
immu
##stusel
##tooted
Fondi
alamp
asjal
peeta
teata
toast
##halduse
##ktuurid
Türgis
eluaeg
karjää
laeval
ründas
##tajatest
massaaž
mõistan
näitust
osavõtu
peakski
teemale
termini
testida
visatud
õppimis
üksjagu
üleüldi
Williams
arutleda
mahtunud
nägemine
saamisel
selgitus
tarbijad
valmivad
vältimatu
võrgustik
järgmisest
paratamatu
plaanitakse
rakendamist
##šo
Py
wi
##paki
##stia
##tung
Hig
kot
##menüü
##ntsto
##tõrju
Mmil
infe
meis
olek
süva
##koolid
##linaar
##pordis
##sõidus
Kunda
kannu
uurim
##aluseid
##ikomple
##informa
##isaldus
Valent
kuulab
laulma
söödud
võimet
avastus
koduloo
ostmise
turiste
tänavas
valdade
veekogu
##ingimuste
eetrisse
interpre
järgselt
jõudsalt
kasutuse
pisikest
raskused
tugevuse
üritasid
Katariina
tõekspida
Õpetajate
##korruseline
arvestanud
hetkeseisu
kavatsevad
kolmandate
mõistusega
tähendavad
ettekujutus
ettevõtetes
aastakümnete
rakendamiseks
##lon
##onu
##horm
Elu
ven
##kasum
##keses
##kolme
##maine
##onäär
##viise
##vitis
Opel
kael
vani
õudu
##haldur
##oksüda
##uuriga
18.00
Krede
Proje
laada
läbil
nälga
pagan
pööri
##ttidega
Nobeli
Street
eurost
isikul
murdis
mustri
oskate
partii
piisas
sektor
seniks
senist
triibu
tüübid
##lisusest
lihaste
masinat
pinnase
päevane
värvida
##likkusega
##seerimise
esituses
keerukas
maksmine
sisaldus
veenduda
Interneti
globaalse
linnakoda
postitusi
regioonis
taastatud
toimuvale
tragöödia
heakskiidu
kohtadesse
tutvustati
vähenemise
raamatupidamis
##cra
##hli
##nab
##stin
##vees
jõi
##gusse
araa
hiir
loss
##interv
##katega
Istan
Louis
lasid
liike
puute
põhit
valid
vähki
##meelega
eluoht
kerged
laskis
maffia
peegli
vajuta
##ikipedia
Tatjana
erimeel
hirmust
kümnete
lõppude
mudelid
pikemad
põnevad
toimega
üksused
##menetlust
Victoria
istusime
kohaneda
kristlik
liiklust
lõpetati
mootorit
ühinemis
ütlemata
kinnituse
leidmisel
lennukiga
osalemist
protsesse
reageerib
sünnitust
toetajaid
õhtusöögi
##järjekorras
avaldamist
õppeaastal
tegemistest
vabatahtlikud
vastutustunde
keskkonnaameti
kommenteerides
##mö
##koe
##arch
##ismi
##pakk
##õnga
155
Eas
Far
Stu
mui
pia
püs
##adest
##ditud
##kiusa
##liine
##tehni
Ring
pata
reet
semi
##steist
##tunnis
Kasah
Pavel
agent
viiel
vägev
##taimede
Lõhmus
Marina
keskne
sadade
tankla
uksele
veetis
ülemus
##tatavate
haavata
hinnati
kontole
lähiümb
maaliku
teadusa
teisega
võistel
juhiseid
lisamine
objektid
väliselt
dokumenti
kaitsevad
kalapüügi
koosnevad
kõvaketta
muusikast
religioon
tugevamad
üritusele
takistavad
Viljandimaa
parandamise
probleemist
kõikvõimalikke
narkootikumide
spämmirobotite
##eng
##iva
##utz
we
60.
70-
Ska
Suu
##silma
##tsete
000.
Jona
Sild
##baasis
##joonis
##kidest
##kohtus
##mistul
Signe
edela
lehes
mardi
ruume
ränga
trepi
##10.2010
##11.2010
##ikeskus
##likumat
##ööstuse
Indone
ammugi
arvust
elasin
lükati
paluti
pojale
vaesed
##klasside
##punktist
##reerinud
armunud
avamist
eelised
hooneid
lahkelt
maitsta
teatrit
televaa
tööotsi
visanud
ehituste
lennanud
mugavust
puiestee
tõmbasin
tõmmanud
viiendat
eluaastat
pikkusega
komisjonis
palgatõusu
piirivalvu
kilomeetril
kolmandikku
psühhiaatri
suurenemine
politseiniku
kodulehekülje
##ati
##ppo
##tõe
##dela
##komi
##kuri
##rakk
##aarva
##otsus
Audi
Nsvl
live
lohi
paru
##teenus
Iraan
Marga
keeda
särav
tõmbe
##hinnast
##hoonete
##mendiga
Magnus
lokaal
perest
##kohaselt
lisavad
soovile
teinegi
töötuse
hääletus
kasvades
koormust
liikusid
toimumis
tugevdab
valituks
tunnistan
soodustada
fotograafia
korruptsioon
##sm
##war
(!
Pp
ag
##eldi
##juur
##mase
##õhku
brü
flo
##keelt
##likuu
##loome
##oreid
##välje
Liiv
hüva
marg
salu
tina
ussi
1987.
jooke
keeld
marin
puhus
##alaseid
##ikutele
##kontori
##mendiks
Helena
ebaüht
jätame
oskuse
seisid
juulini
kohtule
põhikir
säästva
vaataks
tervises
väheseid
##strateegia
järgneval
kingitusi
punaarmee
segaduses
sellesama
töötamine
absoluutne
järgmisele
valitsused
Kuressaares
mingisuguse
täisväärtus
võimalusest
alustamiseks
eeldatavasti
##oi
##sak
"(
Hr
Nl
##tsev
Dow
Ini
##inaid
##staga
##venti
Asso
Mila
koba
mats
poee
##miseta
##torist
Terje
##lastelt
##stantsi
##vitused
Kaarli
arveid
lootis
ringil
roboti
templi
vahete
gruusia
jäätise
katseid
surmani
vaateid
alahinna
litsents
prognoos
proovige
psüühika
päästjad
sakslane
väravate
eestlanna
jagunevad
koondatud
lähenemis
pataljoni
põhilised
suuruseks
treenerid
unustasin
õpetajale
arvestatav
lihtsamalt
määramisel
määratleda
novembrini
sissepääsu
eesmärkidel
jalgpallikoo
##loe
##pto
Ue
õh
##llid
##nina
Hii
Kei
hit
##põõsa
##solid
##usead
##vaali
2020
Saks
avar
leti
saak
sõud
##isaini
##maadid
##majast
##tsenud
##vituse
Tunne
pints
retke
salon
takka
võlts
##tallinn
Martti
##tarkvara
katusel
mõnedki
otseüle
sooviga
ärkasin
##raamatute
##registris
eelnõuga
kirjalik
menstrua
omanikku
puudusid
vulkaani
üllatada
ettepoole
millekski
tingimisi
võlakirja
süsteemiga
negatiivsed
pikaajalist
sentimeetri
sünnipäeval
ühiskondlik
sotsiaaldemo
teostamiseks
ebaseadusliku
põhiseadusega
##õue
Om
mk
sf
##head
##kele
##šist
165
24-
Ats
Rat
Skp
net
spa
sup
##ikaga
##tajal
##tihti
##tükid
Seli
loha
nael
ülis
##kursus
##maarja
##mmäära
##status
Kruus
kiuda
klapi
levik
loeng
loost
potti
silik
##võtmist
Märtin
nimede
streik
tööaja
kukkuda
kõrgeid
läheneb
mõeldav
nimistu
optimis
ostsime
rakkude
aparaadi
arvutite
avalikud
konsolid
koostaja
nimeline
näidendi
olümpial
otsisime
prostitu
puhkenud
tulemata
täiskogu
Moskvasse
augustist
dollarini
mõningate
poolsaare
tutvustus
Leningradi
kasutajale
katkestada
kontserdid
poolaastal
kasvatamise
stsenaarium
kasutatavate
tingimustega
vastuvõtmist
politseiameti
##78
##ade
##pir
##pix
##sit
({
##aegu
##beid
##isil
##kani
21-
Reg
ano
pas
##kasid
##proua
##terid
##venna
1987
Kela
Kohi
Viik
favo
kaps
kive
patt
vibu
##jatena
Eliza
eksam
nunnu
padja
põdra
##ristide
##uudised
joonud
tehnik
##.03.2011
asjades
rõõmsad
rõõmuks
sidruni
valgeks
veebisa
ämmaema
##põhimõtte
kahtlusi
noortest
rahvaloe
teaduste
valitsev
vanadest
visiooni
hämmastav
iseseisvu
kasulikke
seonduvad
tekkimist
vaimuliku
kilogrammi
kontserdis
külastajad
rakendatud
asjatundjad
järgnevatel
piirkonnast
prokuratuur
tagajärgede
lihtsustatud
negatiivseid
populaarseks
situatsiooni
haldusreformi
proportsionaal
##72
##ikü
##kja
##nny
Bj
##isaa
##ksad
##liht
##nits
##onit
##rell
Maz
##bisid
##rühmi
Novo
türk
##instru
##mistus
##tserem
Kohtu
geope
neiud
nukra
tiiva
tükid
akredi
dirige
eksida
ennegi
hetked
kurtis
tootea
vorsti
##.02.2011
##responde
Leedust
avastab
juhtuks
kaotati
kestvus
lihased
linnaga
seeliku
tutvust
tõmbama
väikeri
ühineda
ebapiisa
eelmised
erametsa
kanaleid
kirjutad
meetodil
põnevust
vanusest
##seadustiku
##võrgustiku
eriliseks
humanitaa
nõustamis
osakonnas
osapoolte
parandama
väikesest
kliinikumi
liikmetest
põhjalikku
silmaringi
tuvastatud
meeskonnale
elukeskkonna
##-06
##row
##üne
Pr
##ikoo
##jalu
##korv
##rese
Cup
krt
##eemia
##gaste
##loomi
##šenko
Oecd
Radi
dile
mära
ärgu
##midega
##tsused
Janno
looga
nelik
oldud
ruudu
segab
##ntidele
##stikuga
aeroob
hierar
jäljed
nõrgad
põrand
saleda
sisend
viisin
Balticu
Belgias
esilina
kohtume
nutikas
portaal
suudeti
tähtsat
Muuseumi
erineval
hetkedel
hoidmise
kangesti
militaar
sügavale
tegijate
##isaldusega
##tervishoiu
Alexander
kauplemis
ajalehtede
enesetunde
rootslased
ettevõtjaid
tegutsemist
vastuvõetud
võimalikest
ühendkuning
sünnipäevaks
teineteisele
välispoliiti
Eb
##keli
##oote
##rilt
Lai
fig
lab
ord
äki
##ikasu
##lingi
/...
Palo
välk
äkit
##kamaid
Jõhvi
autoo
kardi
kinda
märge
plekk
tähti
##fondist
##tmiseks
eeldus
kingad
korrad
küttes
radioa
tuleku
väites
##rahvaste
Tehnika
koostas
provoka
##programme
Peterson
arendama
autodega
blokeeri
hääletas
lahkusid
lubadusi
majutuse
tagavara
trükitud
õpingute
energeeti
hariduste
hindadega
tarbijale
vahejuhtu
vastutule
##ratsioonide
arendamist
kahekordne
mõtteviisi
rahvaliidu
##konverentsil
kollektiivi
mõistetakse
nimekirjast
vastanutest
aastaringselt
riigikontroll
up
##jutu
##lamp
##nger
##tõst
Cru
apo
tab
##madel
##panek
Tule
jõus
trük
usus
##keskse
##kohaga
Mitsu
Põder
finis
kohut
öeldu
##ehituse
##vustest
Markus
kaubad
kutsun
lingid
piduri
##õpetajad
##ürituste
banaani
entusia
mõnusad
nõuande
nõudsid
spekula
sõnutsi
##süsteemis
##versiooni
Austrias
filmides
kalender
säilitab
toimingu
väärivad
äkitselt
isiklikke
lastekodu
rahvusring
Tshetsheeni
esitamiseks
kandideeris
kompromissi
restaureeri
sotsiaalsed
võistkonnad
kasvatatakse
väljakutseid
##los
##tuv
##–20
Ci
Rü
fi
##lati
##tson
({{
112
80.
Elo
Jar
Pel
anu
ham
}})
##biini
##sedes
##silla
##tõmba
Coca
Tere
pomm
räpa
sine
##nikest
##objekt
##tasude
Kooli
Laste
demag
kaoks
riska
sõdur
sõela
ummik
varru
endile
igapäe
interj
kummal
naudib
##kaartide
##ntstotal
##ülesanne
aetakse
diplomi
eelseis
ilusate
jätmise
kõlavad
pehmelt
vahemaa
vallast
Teaduste
jätkunud
nõudluse
sealsete
tooteare
õigusabi
##raamatusse
esmaspäev
jõustunud
kogunesid
madalrõhk
magamisto
neljapäev
noormehed
sõlmimise
tehnilisi
viiekümne
antioksüda
parandatud
tulevikust
poliitikuid
pääsemiseks
statistikat
meeskonnatöö
commentstotal
kontseptsioon
registreeruda
üldplaneeringu
##81
##sb
##õr
##sho
Hp
py
##mele
##ntor
Kim
##eldes
##hetke
##kiire
##resto
##ritsa
Gert
Täht
Veer
akva
hüüa
sept
toad
uuem
vaga
##kstege
##stants
##vateks
kuusk
löödi
pille
poksi
rikke
vilje
##pankade
Argent
Nissan
Punase
keelab
kestus
marjad
nõrgem
ootaks
poisse
sinule
taheta
##töötajad
diivani
eksooti
importi
langema
mentali
pidevas
teatava
vastiku
##ameerikas
##kadeemias
alandada
ebaselge
hobusega
misjärel
narkomaa
rikkalik
sisaldas
sünnivad
tellinud
tulevast
tunnused
kannatama
korterist
näiliselt
pagulaste
selgemaks
suurlinna
teaduslik
tervisega
võrdluses
puhastatud
tööandjale
esivanemate
toiduaineid
täiendavate
ülemaailmse
tähelepanelik
##kõi
##upi
##ford
##gaga
##karu
##labo
##nest
##peut
##puks
##tuge
19-
Avi
Rob
Tes
hüp
õhe
##heide
##ideta
##vaenu
7000
Eiki
Kahe
Scan
arme
sigi
kohma
kraan
rakke
siiru
##häirete
##ikutest
##tähtaeg
Angela
elatud
heitis
kaadri
lõunat
menüüs
pöörab
relvad
selili
traadi
trummi
vääris
Atlandi
elukoht
esemete
koostab
raskust
soodust
tulekul
unenägu
viktori
edasiare
loenguid
maakohus
piiritle
teleskoo
töökohad
veedetud
osutamise
registris
tehnilist
täpsustus
keskkoolis
kirjelduse
seadustega
vanglakari
vastuvõtul
kirjanduses
kehtestamine
territoorium
raamatupidaja
piirivalveameti
##hr
##rgy
##–15
##bala
##elid
Ilo
bal
##kotid
##ndiko
##samad
##tähte
Free
Hara
Life
jabu
##tegija
Alice
Ernst
apost
eksoo
läiki
moosi
najal
nutik
rabar
teksa
vajub
võlad
Wilhel
aitame
juhilu
kiuste
lihast
saatan
vabade
askelda
hullult
lisanud
millelt
mitmele
nullist
nõustun
tänased
õpetust
##kompleksi
##kontserdi
Koondera
arenevad
asetatud
esinduse
hooajaks
jumalaga
rahvuste
silmator
skandaal
pahatihti
stereotüü
vähimatki
deklareeri
praktilist
põhjendada
pööratakse
vaheldumisi
assotsiatsiooni
##ap
Dv
##harm
##mbus
##verä
80-
Naa
art
bel
duu
##-2013
##kstes
##nädal
##rdada
Juku
Samu
pilv
vaos
##kuulsa
1950.
Korea
Ruhnu
disko
kelgu
käiks
sidet
vanal
##kattega
##ktoreid
##tunnise
Haanja
esmase
julgeb
lollid
ootusi
õppija
##omadused
##vahendit
##võitluse
Hitleri
Tallink
Tsahkna
aparaat
hunniku
jätmine
katsuda
odavama
proovid
ringiga
saavuta
teisena
vastass
üksuste
##standardi
kaartide
kongress
nõudmisi
rohkemat
tasemest
##komisjonis
heakskiit
kompleksi
märksõnad
targemaks
tüdrukuid
vahetasin
õpilastel
aktsiatest
botaanikaa
kompetents
projektile
ettevõtetel
koolitustel
visuaalselt
##protsendilise
aktsiaseltsi
järelevalvet
teineteisest
tähelepanuta
kontrollitakse
##kö
##uks
##üül
##enne
##klie
##ware
00.
Rap
Sin
boo
##faili
##gisse
##kuuri
##organ
##seeni
##terit
Sand
hein
indu
pöid
##ressis
Norma
ajani
karbi
krahv
lubja
murde
pallu
puusa
rauda
respe
ritta
ujuda
##rahvale
##rakkude
##tegijad
Angele
Kreutz
Minist
apteeg
kivist
mõnuga
müüjad
pannil
raskes
sisene
valige
Lääneme
dialoog
hertsog
istusid
mõisted
surutud
tualett
juhtumid
koormuse
kõrvakla
sekundis
tulemast
vaenlane
vaidlusi
võidavad
##aastastele
Swedbanki
põlvkonda
tekstiili
veterinaa
kodulehele
taotlemise
tuberkuloo
legendaarne
mitukümmend
kinnitamiseks
klassijuhataja
##gg
##oc
##bub
##õik
##skoo
##veti
Ago
Jac
bin
bre
jpg
vöi
##gramm
##kuule
##nessa
##taimi
##teade
ingl
pill
poed
sepa
tarv
##mikust
Irina
Märja
Salme
Villa
White
jõude
katku
luban
nuusu
pumpa
teras
tsens
##puhkuse
siingi
window
##haigused
abiraha
eelista
harilik
kulukas
kuulaja
paariks
rünnata
surevad
sõbraks
##raatorite
hindasid
jumalast
kannatust
olulisust
telefonis
väljaütle
California
alustamist
haridusega
keskpäeval
minevikust
paranemist
produtsent
tegevuseks
väikelinna
hommikusöök
jalgrattaga
akadeemiline
professionaalse
##199
##rau
##ray
##lash
##lähe
##rata
##strö
##user
7,5
Ado
Jür
##kalda
##kanna
##kaste
##maise
##paela
Line
Roma
baro
papp
##ingust
##kandja
##rkvara
Marsi
hoiak
vilju
küsiks
valges
Chicago
betooni
elamusi
keemiat
peatuse
põlenud
rikkaks
sõideti
süüakse
##asutustes
##tööstuses
##üsteemiga
Armeenia
Hispaani
arutatud
kehtivus
meetodid
numbrile
suhetest
tugevaks
analüüsid
elamiseks
kohtadest
liitumist
õpetajaks
ükshaaval
##registrisse
asjakohane
projektist
tegutsemine
töövõimetus
aktsionäride
saatuslikuks
saavutatakse
olemasolevaid
majanduskriisi
##ism
##rohi
##sein
'''
135
Jur
rus
##klist
##nguks
##ratas
##rence
##tseks
Club
Scie
Vara
bass
geno
kits
lemm
news
##karika
Halli
fotot
gravi
halla
peole
saaki
tulus
õpime
ülema
##oluline
Aasias
United
härras
jälgis
soojem
töösse
##erimisel
##vastased
juhtiva
süsinik
vahetab
õhkkond
Vassilje
heameelt
hüsteeri
kroonile
kuulanud
võõrkeel
kehtivuse
koristada
parkimise
rahaliste
sisestatud
tõsisemalt
tõstetakse
väljapääsu
üliõpilane
initsiatiivi
kollektsioon
teistsugused
keerulisemaks
kontrollimiseks
##hs
##cla
9-
vô
##adis
##allu
##hoki
##kina
##kroo
##lipu
##ooje
##suke
##toad
---
0,1
Pää
app
##pumba
##rises
Hoiu
Jõge
jääv
kisk
padu
rega
##aalist
##aegsed
##nõunik
##suseks
##tatiiv
erksa
geimi
jäägi
keedu
kulmu
kõhus
lased
naiss
pruut
rocki
##loomade
##märgiga
##tavasse
##tootjad
##tustööd
lojaal
lõputu
panust
viieks
võõrad
ühines
hobusel
indiaan
kontser
koolile
kujutan
levikut
pangale
sidemed
taristu
visioon
võimust
jälgivad
keeratud
maamaksu
naistega
nõukogus
retsepte
toetatud
unistada
aastaseks
andmetega
kulutatud
kuvatakse
legendaar
niisamuti
tekitasid
uurimisel
Microsofti
kolmandale
leheküljel
näitlejate
piltlikult
tulenevate
väikestele
andmekaitse
kingituseks
tõsiseltvõe
valimistule
Viljandimaal
ettevõtlusega
kaitsepolitse
kirjeldatakse
veebilehitsejas
##67
##-05
##midt
##ques
##ruud
##seri
##õhna
2,3
6,5
jpm
nov
##eelse
##keelu
##teoro
##turva
##öörid
100-
Emma
Inga
Mänd
Toky
eski
rohi
tiku
##klubis
##kovski
##ration
Lepik
Maked
Venee
kiidu
sokid
suppi
öelge
##hooajal
##koolist
##puhkust
anatoo
arutab
halvas
lisati
pseudo
viited
vormel
võrdsu
Koidula
arutleb
intress
jooksev
juhised
konsens
streigi
toimuks
tunneks
turgude
väljend
võtteid
Põlvamaa
kanalite
maagaasi
nimetuse
paremate
punktini
põhjuste
##lugupeetud
arhitekti
huvipakku
mõistatus
rõõmustab
hinnanguid
täiendatud
vigastuste
normaalseks
romantiline
eksperimente
emotsioonide
kindlaksmäära
kommunistliku
##bl
##zen
##****
##fest
##veni
##õber
Has
Lit
##gesin
##hoole
##kopte
##kunud
##meeli
##ngeni
##riist
Apol
Opti
##misena
##pöördu
##riided
##rühmas
##tsükli
##varust
Gabri
Grand
Mario
fosfo
isade
kääri
lõdve
vajan
##ekspert
##listlik
##ppidega
Monika
kibest
kuluks
labida
läbima
lähema
pakkuv
seinte
##piirkond
arvutid
keldris
osalise
telekas
toetame
vedelik
võitleb
##vahetusel
eeldusel
istutada
piltidel
ajaliselt
ekspressi
kortereid
moodustub
nõustunud
pikkuseks
tegutseva
toimuvate
töötavate
riiklikult
tegelikkus
kahjustatud
planeerimis
pressiteade
kasutajatele
sotsiaalseid
resolutsiooni
##4-
##82
##cio
##nse
##äbi
Up
##tisa
##uloo
23-
750
Lat
Ruu
bla
nõl
wor
##hakka
##harra
##metes
##moodu
##signa
kolu
saue
##plaane
##tuleid
asuma
logis
loodu
nõuet
tüübi
France
kaduda
koeral
kompuu
külmas
lähiko
omanda
prohve
sisust
tuligi
##koormust
Laurist
Toronto
ravimit
väheste
ühekord
##kaaslaste
##mootoriga
kutsusid
küüslauk
vaatleja
aktiveeri
kingituse
rahvaliit
soojendus
tunnustas
varustust
võimekust
eemaldatud
lühikeseks
eemaldamine
kolmveerand
teenistuses
tipptasemel
kehtestamise
otsustatakse
taastamiseks
võimalustega
##))
##om
##fur
Mp
##ltsu
##nuht
##tana
102
Eka
##dusid
##pallu
##õidus
...,
Bene
Jour
Kaal
Live
Love
Rimi
ebas
kuup
silu
tonn
##ansamb
##gement
##issöör
##jooned
##klaasi
##tõenäo
Muuga
Simon
budis
intri
ründa
tulek
##meelsus
külade
seadis
toetav
õhtust
Maailma
Sarapuu
igakülg
kandida
kodudes
kunstis
maavali
naisest
otsuses
polevat
päevale
pääseks
videost
ühtlane
avaldusi
elatusta
lihtsaid
miljonid
pretsede
punaseks
saatmine
tolmuime
võidetud
Kaubandus
abielluda
etteantud
kapitalis
psühhiaat
ühinemine
maakondade
mälestuste
tervishoius
kavatsetakse
enesekindlust
administratiiv
##69
##že
##jov
(?
##gram
##jutt
##lett
##mant
##niks
##psis
5,5
Ekp
Jee
sat
##ssoni
##villa
Kari
Seba
köit
süli
ummi
##itudes
##mbreid
##ressid
##stulnu
##tudest
Majas
iivel
kopee
korva
paelu
peako
rajad
##kuninga
##paneeli
##vastast
Haaber
kandev
muigab
mõõdud
nurise
otsaga
videod
Sanomat
haigete
kallima
kasside
küünlad
murdmaa
ohtliku
palgaga
siirdus
soovide
ennustab
peaksite
toimetus
tsiteeri
uudistes
uustulnu
välismai
galaktika
lepingule
loobumine
ohustatud
vastutama
lennuvälja
kiiruskatse
laialdaselt
tervislikku
võlakirjade
kunstimuuseumi
##jun
##üga
Gb
pö
##biin
##kong
##lood
##tuva
##well
üma
##naine
##nesco
##raami
Pier
Uibo
nano
suhk
teri
äris
##aegset
##kusele
12.00
Luige
Penta
eduse
salat
valud
##masinad
ajajär
eksole
kindad
mõjust
pinnas
protei
salata
sõjate
üksike
##masinate
##tajatega
Brüssel
edasist
formaat
juhtmed
kuumaks
pudelit
saateid
seljast
surmast
kliendil
ligemale
nõustaja
reisijad
ressursi
tõstavad
##hoidmiseks
abivalmis
juhtidele
kinnistus
olevatest
palutakse
poolaasta
tänulikud
vereringe
digitaalse
karistatud
siinjuures
sülearvuti
##demokraatide
käitumisega
meditsiinis
tulemustega
ajavahemikus
ettepanekute
poliitikasse
##73
##dr
##nb
##yne
##hüpe
##inel
##müra
Dor
Fle
Oma
##avald
##eskus
##imale
##konta
##nähta
##palka
##toode
Blue
Rida
Stel
dest
relv
##seeris
Karja
Kolga
Petro
hauda
Üllar
##induses
##meremaa
Sõnumi
filmik
filter
ideest
kauple
keskka
kibeda
moodul
nõukaa
tsikli
tühine
õhtuni
õigete
Liidust
asendab
europar
kuivaks
kuuldud
mahajäe
mõnedel
soolise
vaesuse
veetnud
väiteid
##tingimusi
aastased
ajalooga
eksperdi
entsüklo
galeriis
lõplikku
maanteed
nendesse
nimetust
reisijat
selgesti
suvaline
tasumise
vastates
õpetatud
##julgeoleku
Lissaboni
artiklile
järeleand
kogutakse
lauapalli
nädalatel
reaalsuse
unistused
õpetamise
Javaskript
korraldust
päästeamet
rõõmustada
tellimusel
efektiivsuse
paigaldamine
kättesaadavus
##ego
##ajad
##inim
##miit
##mund
##pree
##vani
184
Eco
Ers
Iga
Kli
Tou
ang
õis
##nelja
##tagem
Maks
Raua
##rdatud
##vaatne
Vista
amino
armat
otsid
viilu
##kolaadi
##väärsed
kroone
kuuest
lisama
teadet
##energiat
##tegelane
alumise
juhendi
kindlus
laastus
misjoni
pakutav
valijad
eeliseks
investor
kollased
massaaži
muusikas
seemneid
tegijaid
terrassi
valikust
##programmid
demonstra
jälgimine
lähedusse
oliiviõli
puutumata
tootmises
ebanormaal
kinnisasja
kortermaja
põhjustest
tegemisest
vabastatud
vanaraamat
ettevõtlust
korrakaitse
sündmustest
tseremoonia
vajadustest
valgustatud
funktsioonid
jalutuskäigu
kolesterooli
muusikakooli
registreerunud
##),
##õp
##–3
##-04
##bat
##sai
Öö
##iler
##raie
##umma
70.
Fro
jpt
1918
setu
##liidus
##ulatus
##uuring
Budap
blond
hambu
juuri
kleid
kõvad
marka
piraa
tuulu
##avaldus
##ksteist
alasid
ilusal
müügik
odavad
öömaja
##koondise
Antonio
Johanne
jookide
kanalid
koosole
likviid
mainima
mugavus
segades
lahingus
lennukid
läbimõõt
maakohtu
numbrite
ostmisel
päikesel
püsivalt
soovijad
toiminud
mõistmist
neljandas
rõõmustas
sisaldama
sugulaste
käsitletud
neljakümne
niisugused
riigimetsa
väärtuslik
elukaaslane
lemmiklooma
vaimustuses
võistlusele
üldkoosolek
jätkusuutlik
korraldamist
kergliikluste
puhastamiseks
valitsuskoali
parlamendivali
##ess
##nss
##när
##nõi
##iire
##roid
##õhus
2/3
Eng
Rõi
oeh
rei
##fordi
##ikuks
##kisin
##laval
##müüja
##pildu
##tises
Arco
Edit
Enno
Osce
Rait
##iiliga
##mateks
##turule
Teder
araab
dieet
kaota
koreo
saite
seebi
surfa
trepp
##auhinna
##firmale
##kindlus
##ndumise
Vormsi
faasis
failid
leitav
poolne
rühmas
sõduri
valada
värvus
##allikate
##asutuses
##inõukogu
##kindluse
kirjaga
mugavad
naljalt
nõustub
oletame
palverä
patendi
rentida
seinast
tänades
töödest
võimsad
##tulemuste
lehekülg
maitsele
määravad
taskusse
tõlkinud
uuringut
hommikune
kasutamis
maitsesta
meeleheit
politseid
reaalajas
tarvitada
vaktsiini
väljendas
ühiselamu
arvamusega
eranditult
põhikoolis
pöördumise
tegevusala
tulenevaid
vahetamine
ameeriklane
päikesepaiste
koduleheküljel
##rex
##tku
;-
##lole
##mpus
##tamm
##võla
Möl
akt
##gasid
##homme
##moona
##nikul
##paadi
##teris
Arne
arhi
hüpa
kald
sort
tamm
##keemia
##olümpi
Greta
kenad
siidi
surub
tseme
usina
välgu
##liiklus
##maraton
##ndidaat
austus
digita
kiirga
kippus
klubid
kümnes
küsige
olevas
##aastasel
aidates
hoidsin
juhitav
mustaks
pisarad
saatust
selleta
teatama
##riikidest
Jeltsini
elektrim
leidmise
masendav
metsades
palaviku
parandus
spontaan
vaheaega
##poliitikas
koondunud
mustvalge
vannituba
viimistle
ehitamisel
kandidaate
menetluses
parlamenta
saavutasid
valmistati
komponendid
tegutsevate
arendamisele
erinevatesse
maailmavaate
planeerimine
konstruktsioon
##62
##rvu
##šee
Sä
##lity
##vank
##õltu
320
Lud
söa
##ffice
##house
##klaas
##pelda
##turgu
##uunda
sõdi
##aaliga
##kesega
##vikute
##vormis
Kauna
Võrts
deval
halbu
kapis
kooki
metsi
näidu
telje
tulev
##mistasu
Ivanov
küljel
liikuv
paksus
pojaga
server
sotsid
##.08.2011
##kujuline
##naabrite
##projekte
##ülesande
elusole
joostes
jutuaja
kooslus
lubadus
ohvreid
väikesi
väljund
##huvilised
Voldemar
bakterid
kaardile
laulupeo
osutusid
sisemist
toonitas
võimsust
##ministrile
kaubamärk
sotsiaala
sportlase
tegemised
turvalise
tütarlaps
vastuollu
eksemplari
jaanuarini
kohtlemise
soovitatud
juriidiliselt
ventilatsiooni
##83
##üs
Gt
aj
##less
##lill
Aab
Aid
Bat
Lav
Mei
Ora
Wel
##ekraa
##infot
##kukku
Stud
jäme
mäed
tees
toht
vase
##hooned
##kamalt
##pandud
##pudeli
Daily
Fordi
Tšehh
abitu
algne
avara
ebatä
endid
faile
hoold
jagus
jäiga
kopsa
tõrge
##eerunud
##gaaside
##võimega
Georgi
Liiban
Unesco
ajasid
avanud
olidki
pahaks
pliidi
puljon
solist
teates
vahega
Selveri
eelmist
isiksus
lahtise
paavsti
vaarika
valutab
##õigusliku
Tallinki
firmasid
kirjutus
maakonda
masinaid
mudelite
muutumas
paindlik
pettumus
piirides
rahakott
saavutab
sugulane
suhtuvad
säilitus
toimetas
##ratsioonid
autoritee
korvpallu
loodusega
lugemisel
rääkimine
suuremale
harjutused
tähtsamaid
jalakäijate
maavalitsus
prantslased
vahetevahel
emotsionaalse
leevendamiseks
##ds
##pic
##rio
Ox
Un
Wc
##buli
##inti
Cen
fro
##aadid
##manda
Amaz
Good
Home
Wall
Wood
apla
hero
laik
lati
leba
masu
säde
ärgi
õlgu
järge
orgas
ostad
point
raevu
sakra
tänas
Pentus
katset
kehaga
kõlama
lossis
minima
näitel
olekus
osadel
pikale
soomus
toidus
uhkelt
##organite
##printsii
##seadmeid
##õigusega
mahutab
portuga
arvutist
lätlased
mõttekas
poistele
staadion
tunnetus
töötasin
vigadest
võimekus
Kirjastus
käsikirja
paigaldus
süüdistas
võidelnud
ühtlaseks
fotograafi
kogemusega
sissetungi
ettevõttest
kasutusjuhe
kõrvaltoime
meistritiit
süüdistused
teadlikkust
kommentaaride
materjalidest
institutsiooni
Neu
com
##hinga
##imate
##käibe
##maaga
##välju
1945
Bank
hoos
isal
lapi
mada
modi
pühi
sõid
ümbr
##vennad
Rocca
Tuuli
arvud
ehita
eluea
kippu
noaga
paani
painu
rapsi
sõite
tunta
vürst
##asukoht
##korteri
kandes
kehvem
ostsid
rongis
tundes
vanaks
võitma
##.05.2011
##jäätmete
Baltika
ajakoha
hingega
kasvuga
kasvule
klassid
lõhkuda
muudaks
puhangu
teeksid
toimunu
õppejõu
ümbriku
analoogi
elektris
hoogsalt
häältest
kursused
pooleldi
puuvilju
sihikind
##identsiaal
Järvamaal
Valgamaal
möödumist
nähtamatu
taotlused
toimetuse
vastavust
vigastusi
eluaastast
kohalikust
sooritatud
varjupaika
instituudis
vastastikku
Jeruusalemma
kriteeriumid
ettevalmistusi
kõrgharidusega
##ppy
##rof
##sõi
##kohv
##maar
sla
##hapet
##romaa
Ilus
Rome
prag
sulg
##etapil
##juhile
##reisid
##stardi
##tsesid
##vamaid
15.00
delfi
hoobi
kraam
täiel
veski
##erakond
##ndavaid
Hitler
läbimu
paneel
sajand
staabi
##poolseid
Argenti
Chelsea
Pauluse
Pärnust
ajastul
põhiees
seostub
tugineb
vastuta
vältima
õhtusöö
Amsterda
National
hilisema
juustega
kogudust
kuuluvat
käsitlus
lõppesid
põhimäär
taustaks
tekstide
visiidil
Mõõdukate
muutumist
pikemaaja
arusaamine
haridusasu
kuulutanud
sellisesse
subjektiiv
võistlejad
üliõpilase
raamatutest
##demokraatliku
esmaspäevast
spetsialiste
kõikvõimalike
naiskodukaitse
##sc
Km
Xp
kt
##este
##higa
##illy
##pima
##psud
##teni
##tura
che
Šmi
##amika
##isise
##retse
##tants
##tehas
isad
loed
meed
näod
sani
sitt
toda
vabu
##pakett
Boris
Grete
grill
käsku
olude
pagas
rahad
süütu
tagas
ehmata
kohaks
messil
miljöö
minusu
##tegemine
liigset
neljale
omavoli
paarist
söömise
tihedat
toitude
tulekah
unikaal
ülemise
arenguid
esikohal
piletite
vastasid
ülekäigu
Šveitsis
energiast
keskliidu
kirjastus
käsitleva
minuarust
mõtteviis
nähtavale
tagastada
terviklik
vaatajate
volikogus
võistlema
lavastuses
looduslike
loomulikku
hingamistee
konsulteeri
krediidiasu
igapäevaseks
konfidentsiaal
##organisatsioonid
väärtushinnangu
##šš
##–5
##bie
##cos
##kem
Jy
Vu
##.05.
##teos
##tiks
Amb
Tsi
fer
mõj
sse
##juust
##maala
1986
Kruu
Leed
kurk
pump
take
viim
##olekul
##välise
20-30
Tabas
arste
karis
lähim
major
matši
primi
##haiglas
##plaanid
andmes
ilmuma
kuulas
naviga
soengu
välisa
Institu
aksessu
andsime
aspekti
esindas
fännide
kiireks
kinnita
kolonel
küpseta
liigagi
mereäär
tervele
trepist
tuntuim
algataja
alguseni
haridusa
maaletoo
mõõdukas
numbriga
nädalast
suhkruga
venelasi
võitjate
õpetavad
elegantse
ligipääse
miljonile
mängimine
soovitati
vähendama
eraldiseis
esitamisel
jäätmekäit
natukenegi
olemasolul
originaali
süsteemist
vastastiku
eksistentsi
intensiivne
kirjanduste
korresponde
magamistuba
puhastamine
seisukorras
lõpetamiseks
individuaalselt
##sd
##eur
##gge
##sey
##tex
##õru
##gast
##goni
##kvel
Här
out
##emaks
##soovi
##üneko
Tech
idas
kura
kure
matš
navi
pasu
##mehest
##staadi
##ülevaa
Niiet
Saint
Stati
loata
loeme
pihla
prete
retoo
salas
speku
##kustele
##tsemine
Nordic
edukat
naudin
tõotab
tõstes
uurime
vanale
väljus
##kogemuse
Kultuur
Rumeeni
apteegi
diskree
esitles
julgeks
kasvaja
kodutöö
kohelda
kuuluma
lükanud
ostmist
tutvuma
võlgade
ärgates
ükspäev
armukade
imestama
lootused
milleski
olulisim
personal
salapära
võõranda
Jürgenson
erakordne
hingamise
jooksvalt
kunstiteo
metsandus
Volkswagen
keerulised
laienemine
ametikohale
kõrgendatud
lõpetatakse
sõbralikult
veebilehtede
##63
Vk
##.07.
##hale
##miad
##mike
##uusa
##inike
##ntrop
##nõmme
Anto
Evel
Peal
Pere
Poom
karv
kera
läki
temb
tobe
##ingule
##liinid
##ristid
##tasuks
##umisse
2020.
Light
jänes
kopte
riiva
Napole
arenes
baaris
eraldu
hüüdis
joogid
kootud
kordan
maastu
mineku
puhkes
välisu
##kogemust
##liitrine
##listesse
##meestest
##oloogide
##uuringud
Audente
Moldova
ebasood
muudele
plaadid
seonduv
sõdurit
tõendid
vihjeid
##nähtavalt
loomaaia
lugejaid
läbiotsi
muusikaa
tegeleva
toimetab
välistab
ülekanne
ehitustöö
kahanenud
kõrgemate
loomisest
miljonist
politseil
sõnastada
teoloogia
vastukaja
lavastatud
koolitusele
päevakorras
põllumeeste
eelnimetatud
peasekretäri
prioriteedid
peakorraldaja
"!
##cent
##jeva
##saga
##taaž
##view
Aar
okt
##inger
##käive
##müüri
##nimed
##seene
##soome
##waldi
##ööver
Tšer
kabe
kons
kumm
õõne
##cation
##filmid
##likuga
10.00
Reali
esina
kuuri
muina
noole
opone
tilka
##allikad
##oodangu
aatomi
karist
kraani
küünar
laekub
parfüü
##populaar
##tootjate
Kiviõli
Ungaris
börsile
filmiga
firmast
maitses
märgiks
mõjusid
peamist
proovib
startis
tumedad
vanemat
üldised
##keskustes
##lepingute
##stumiseks
European
Tõnisson
eluruumi
haiglate
küllalda
sümbooli
teatavad
vanemaks
arutasime
erinevust
hukkunute
kasvatama
parkimine
puudumist
rakendama
sooviksid
vahendaja
õpetajana
elamisluba
totaalselt
valitsevad
vähendavad
intelligent
pärastlõuna
rahuldamata
teenistusse
valitsemise
mitmesugused
regulatsioon
paigaldatakse
arendustegevuse
##79
##ata
##obi
##hane
##raku
13-
Cal
Dou
Ham
Imf
Von
log
tše
upi
##ladel
##ndage
Lisa
Noor
##faasis
##metele
hoiti
inetu
jäädi
kasta
keeta
pühad
sööme
##juhtumi
##maksude
##suhteid
Priidu
hoovis
paindu
piirab
pinged
päralt
reovee
vaadel
elatist
kontsep
legendi
liigese
liigume
menüüst
räägita
tasunud
täpsema
värskes
võtmata
inseneri
lennukis
loosungi
mudeleid
nostalgi
nõusolek
proovime
staatust
tegelase
valisime
vitamiin
Egiptuses
bussijuht
eelmistel
menetlust
mõjutatud
printsiip
riiklikud
seonduvat
soovituse
sõlmimist
valmistus
ajaloolane
arhitektid
aseesimehe
keskhaigla
silmakirja
tunnistaja
edastatakse
praktilised
traditsioone
##74
##tz
##ane
##dha
Hõ
##gale
##nsis
Sea
eos
glu
##ikuju
##rakud
##roomi
##siidi
##taset
Mani
Otsa
Tori
dete
holo
laos
müri
salv
##aalsed
##aatide
##paigad
##püksid
##taimed
kotis
leppi
mehaa
prese
tõstu
##eerides
##füüsika
##käigust
##ootmise
Kärdla
eilsel
hetero
hüppab
kompli
kultus
lektor
läände
misjon
naasta
nahast
putuka
##ndidaadi
##põhimõte
arstiga
halasta
kiireim
kogused
krõbeda
lolliks
otsitud
sünonüü
võõrast
Vilniuse
arutelud
erandeid
kutsikas
mitmetel
omanikul
osakonda
raudselt
sõlmisid
sügavkül
teadlase
ühtviisi
Kaubamaja
kaksteist
lagunenud
mustanaha
patsiente
##tsioonidega
Ministrite
ühendamine
Skandinaavi
depressioon
efektiivsus
populaarsus
võimaldanud
avalikustada
kurjategijad
##dat
##jut
##else
##pump
##tuur
2,6
Geo
Joa
ufo
##htust
##lanti
##olude
##remäe
Open
free
hüpe
jada
pahu
roos
##rikast
Pärdi
Santa
Vallo
fossi
jooki
ketas
konja
loeti
sinus
tülli
ürita
##fineeri
##järjest
##massist
##ndatult
##statuse
Carlos
Kuning
avaldu
käsikä
mindud
naasis
oskame
peatub
põhitõ
tsaari
väline
##kohtades
##pataljon
##pidamine
Raekoja
arenema
arvutik
imeilus
joomine
moslemi
nokitse
säärast
toiduks
##võimaluse
alkohool
apelsini
hooldada
kiirusel
kuulasin
ohvitser
omanikke
rahalisi
suutsime
taotlema
teavitus
vererõhk
õnnetusi
##kümnendate
asukohast
sajandite
segadusse
sisaldada
varastati
Päevalehes
ajaloolist
kultuurist
linnaplane
riigilõivu
sõlmitakse
jumalateeni
kinnitamine
seisukohale
kandidaadiks
olemasolevad
elluviimiseks
kaheteistkümne
##lö
##ww
##itü
Mb
Zu
##ilda
##sõda
##tsel
128
Eok
Pir
Rol
lak
##deksi
##holmi
##kerda
##laris
##moder
Kiis
Peda
purk
püga
rott
vuti
öine
##atorid
##firmat
##liigid
##mehega
##oonial
##oonile
##pilved
##pordik
##sioone
##uurija
essee
kuhju
laene
liide
retro
üksus
##võrkude
hooliv
kõlbab
küljed
maksid
meelel
reljee
sekund
sõnagi
sõrmed
##konsulta
##tiivsete
esineja
halvaks
küsisid
osalust
poisile
pärandi
põhitöö
relvade
üritame
##koosseisu
##õpetajate
Heinrich
ehitiste
erisoodu
ideaalis
kartulit
kevadine
mainisin
meeldida
nooruses
rünnakut
tehingut
tõmbavad
valduses
vanglast
vestlust
välimust
Hansapank
divisjoni
olukorrad
planeedil
rajatakse
keskmiseks
kilpnäärme
teadusliku
telefoniga
täidetakse
armastusega
bürokraatia
kokkulepped
lahenduseks
loomakaitse
niisuguseid
tagasimakse
teadlikkuse
tunnistavad
vastsündinu
vikerraadio
telefonikõne
liikmesriigis
perekonnanime
situatsioonis
temperatuuril
##5-
##56
##71
##onn
##figu
##gnar
##seal
##tees
##ving
2.0
Boo
Ray
Skt
ore
zoo
##atris
##baidž
##liigu
##mmeet
##valud
##veski
Keit
neer
ytle
##badest
##kümnes
##tutele
##üliõpi
Kairi
Lembi
Pätsi
Silja
jutus
kotka
lopsa
lumes
lõksu
tänab
##distsip
##tamatud
Inimõi
Kivirä
hõreda
kogune
kordas
korduv
mahtus
saatke
seosed
turism
##.09.2010
Reiljan
alkohoo
kauneid
kummagi
lubasin
muljeid
parooli
piirini
prestii
puutuda
tapmise
toomine
##maastikul
Mitsubis
näituste
põletada
register
toodavad
analüütik
avalikkus
eeskirjad
mängimist
mängisime
ohtlikuks
palgatõus
pessimist
suhteline
võitlevad
esimestest
kasutajaid
olemasolev
pakkumiste
telekanali
vähenemist
võistlevad
eksperiment
kindlustuse
tagatisraha
teadvustada
asjatundjate
kohusetäitja
koordinaadid
ettevalmistuse
##jpg
##rab
If
##data
##õike
,''
104
Evp
Lew
Who
##balti
##isist
##ketid
##palve
##tunnu
Hand
Kolu
jõel
slaa
voha
##onaala
Erika
Jones
domin
eeter
koopi
lakke
nutta
opere
pappi
##stustöö
enamgi
julgus
mänedž
märkab
ookean
söögik
taigna
tõlkes
uuriti
##rgeetika
esitleb
faceboo
jääksid
päevali
teadvus
telekat
tollane
Raudsepp
erandiks
hirmuära
jutustas
keerasin
kunstide
natukese
paikades
tantsida
teraapia
vererõhu
ülemkogu
armastama
arvestuse
elektroma
hõlpsasti
katkestas
loomisega
suletakse
edaspidigi
operaatori
provintsis
treenerite
soovitaksin
Eurovisiooni
aastatuhande
loominguline
politseijaos
positsioonil
mitmekesisuse
renoveerimist
väljakujunenud
##58
##sp
##nai
##sum
##chti
##cing
##paat
##prus
##stuv
Ato
Ees
##.2002
##kates
##liisa
##margi
##mmeri
##riski
##talla
##tööle
##varud
##vesid
)...
1938
Aivo
Real
dets
enna
giga
jões
kett
punt
reda
taru
tsin
##musena
##seerib
##stakse
Vilde
audio
hella
linki
loete
süües
##aegsete
##metalli
blondi
heidab
kleepu
konver
kõrtsi
lörtsi
metsad
näivad
osutas
sinult
suusad
söömas
taluda
testis
##.04.2011
Sebasti
baltisa
endises
kopeeri
mängule
omandab
sätesta
ulatuda
voodist
##osakonnas
mängudes
ohtlikke
tasuline
toonides
kaotusega
kiirendab
kirjanike
kohtumisi
puhkusele
eraisikute
kampaaniat
kapitalist
kontaktide
küpsetatud
lugejatele
menetlusse
valmisolek
kirjutamist
kohtumisest
maakondades
mõistlikult
koostamiseks
majandustule
vandeadvokaat
allkirjastatud
ringkonnakohtu
##61
##-02
##oov
Kp
Lk
##ieri
##kaim
##korr
90-
Law
Wie
rez
##cheri
##matka
##oogid
##rendi
##vaigi
##veini
Jala
Kamb
Kert
Pana
imbu
kuse
nõel
paju
täto
##adlane
##damine
Tauno
aidsi
erisu
purgi
tsite
turja
##elanike
##meetmed
##ressurs
Rudolf
Vatika
arukas
asjata
helise
hoiaku
huumor
kookos
kvanti
lootma
nomine
pillid
sobima
tahtel
tähtsu
##põletiku
##ttepanek
eriarva
fenomen
juristi
jäätist
kaaluma
koondab
kukuvad
päästab
sarjast
sotside
sügavus
temasse
##ganistani
##liikumine
aktivist
elukvali
joogivee
kulutama
käsikäes
väärikas
Hoiupanga
assamblee
asustatud
jalgadega
konteiner
lennujaam
mõningast
piltidega
samapalju
sümpaatne
tõeliseks
vajatakse
vastaseid
automatise
huvitavaks
kristlaste
loodusesse
nõusolekut
Inimõiguste
järgmistele
keskkonnast
lahendamist
patsiendile
pedagoogika
saavutamine
põhiturniiri
kontaktandmed
välismaalaste
ministeeriumide
##aste
##bila
##käär
##nuel
##tigi
183
Hur
Joe
ahv
##basse
##hamba
##ksuga
##model
##paigu
##runud
##vitsa
1400
1984
Kärt
Leon
ahvi
ilve
kaen
kahu
rokk
tüsi
äpar
õpin
##ikassa
##tajaga
##voorus
Blogi
Etale
Rosen
jäägu
omama
sööta
Valter
kandja
kuumus
loobub
maksad
noorim
testid
äratus
##tamiseni
##väärseks
Scanpix
ilutule
kiitnud
maganud
modelli
ootuste
põhjast
sõnniku
##kohustuse
eriarsti
esiliiga
graafiku
hobuseid
kajastab
kooliõpi
nähtavad
pakutava
puhastab
sisaldub
suurused
teavitab
tellisin
aspektist
kellegile
kiirendus
loomisele
needsamad
olemusest
surmanuht
vahelisel
väikesele
##korruselise
argumendid
integreeri
kõrvalekal
soovitanud
kodulehtede
läbiviimine
optimistlik
suurendavad
veebruarini
õppejõudude
analüütikute
bioloogilise
hommikusöögi
suitsetamise
planeerimisel
ebaseaduslikult
##,,
##kro
##õie
Oy
##-100
##edia
##mona
##rity
##rodi
##tovi
##ulud
Kop
Pie
Wik
fua
##desid
##hingu
##matul
##ossip
##rõhku
##tasud
Lepa
Port
aasa
matt
##käigud
##meheks
##plahva
Järvi
kehal
näidi
piste
põrmu
tondi
õhtut
##kursuse
##numbrid
##paigaks
##ruumist
Alfred
Island
Joseph
Maxima
Trumpi
arstil
pesema
suvise
toetub
täitus
uhkust
vaidle
##kirjanik
##lähedane
Ojuland
Singapu
ettehei
filmile
firmaga
kahanes
kuhjaga
mõjunud
paprika
räägiks
tempera
ümbrust
##küsimuste
Aseesime
arutasid
diivanil
diplomaa
koosneva
opereeri
põhineva
tutvunud
kataloogi
kaupluste
miljonite
mõistmine
piirmäära
tööriistu
vabakutse
veebileht
võtmiseks
ühinemist
digitaalne
ettekandes
ühesugused
kandideerib
lootusetult
õhtupoolikul
maksumaksjate
##lao
##lme
##ult
##chal
##hani
##vaht
Alb
Dag
##gspot
##imann
##miral
##perja
##pilte
##retke
##skaja
##tismi
Shve
Team
alfa
kutt
##adesse
##ekraan
##jaaegu
##ktikas
15-20
Berna
huvik
taina
uudne
##aastalt
##tiivsed
##tiivset
Gazpro
Peking
Tarand
apteek
filtri
kõrvar
lähima
needki
saadan
sihuke
vajaka
ähvard
õhtune
ööpäev
##karjääri
jäämine
korrast
lüüakse
tabatud
taolisi
vaikust
Business
arsenali
helistab
kaloreid
koertega
kõrgrõhu
liikmele
piiskopi
pimeduse
pisaraid
sisustus
tõstmist
erinevast
jalutades
kalmistul
koondises
mõõdukalt
põhjendus
terminali
vigastuse
ülikoolid
krooniline
limaskesta
rakenduste
töötlemise
varasemaid
veresuhkru
##raamatukogus
kontserdile
kultuuriloo
teostatakse
tähendusega
ülemaailmne
globaliseeru
töökeskkonna
intelligentse
sisemajanduse
olümpiamängudel
Zo
##bras
##korp
##mpro
##padi
##peda
1,1
2,7
Pau
ara
##baste
##mitud
##selle
Aser
Erri
hais
kumu
merd
mood
nutt
pedo
spaa
sööt
tast
##arengu
##ikusse
##kindla
##ktselt
##likuid
##misaeg
##poisid
##poolel
##prilli
##ustest
Elina
Kenne
Kross
Vaino
inima
kappi
kurgi
kätke
laevu
leili
maisi
näppu
riisu
toone
##ntidega
##vabriku
Partsi
Pevkur
Roland
adrena
elutöö
käsile
laulus
paadis
piirde
platse
tõdema
võimed
võlgne
õigele
##hoolduse
##prokurör
mesilas
mingiks
multime
pressin
tahtest
telesaa
tuletas
õppides
##valdkonda
Portugal
käitunud
pabereid
suheldes
süveneda
Kongressi
hiljaaegu
kommentaa
kompaktse
loomadele
monumendi
rünnakute
alumiinium
eestlasest
esmajoones
nõustamine
pakutavate
seestpoolt
tihedamini
õppimiseks
arvutatakse
Washingtonis
edendamiseks
maksustamise
programmeeri
ringkonnakohus
##53
##hee
##baar
##janu
##koli
##moto
##ndro
##tten
650
Aga
pst
##aldus
##inäge
##selja
##situd
Uefa
kapp
kõhe
leki
mürk
nutu
nörd
ohud
osav
rebi
##inikud
##ttevõt
16.00
Antar
Eerik
Raimo
Smith
memme
purki
toore
##inumbri
##pension
##stavaks
##üksused
aparaa
güneko
kausta
kestev
kuulan
lepiti
levima
mängin
polaar
surema
tiivad
tsooni
vargad
##piletite
##poolselt
Associa
arutles
austust
eristab
korpuse
kriipsu
kuberma
kuulsus
küsitav
laiemat
läbivad
mitmeks
mõttest
mõõtmed
sulanud
tõsisem
usinalt
uurivad
Windowsi
algkooli
elatakse
hõlmavad
kaaslast
lähtuvad
muutmata
niiöelda
silmapil
väikesel
aastaselt
andmisest
foorumist
kohtadele
peeglisse
rahalised
rahvamaja
vahekorra
vajutades
valuvaigi
vastaseks
värviline
äripäevas
abstraktse
disainitud
esindajana
hoolekande
koostisosa
laienemise
seksuaalse
klientidega
külastajaid
maanteeamet
protsendiga
rahvatantsu
võimaluseks
mineraalaine
negatiivselt
rakendamisel
seisukohtade
##-35
##gib
Mw
Op
##.09.
##chen
##elne
##ings
##oovi
##ormi
##roll
0,2
22-
hur
pad
vit
##musta
##nnide
##õbrad
1982
5-10
Arro
Nata
duši
giid
kart
läik
serv
tshe
utoo
##isumma
##jektoo
##minaal
Bayer
Sõõru
esinu
hülga
kaebu
kruvi
lasub
metro
sütti
##meestel
##statist
##tusteks
Apollo
kaotsi
küüned
laseme
proosa
põgene
tuules
väidet
##paberiga
##seisundi
apelsin
asumist
elevust
hakates
halvene
huvisid
mahuvad
peresid
rõivaid
tõestas
Pealkiri
Vastseli
aruandes
juustele
kingitud
kraadini
kuulsaks
maksmist
preester
professo
puudulik
reporter
teenisid
vigastus
andmetele
keskusest
millistel
patsienti
edendamise
hoolitsema
kiirendada
missugused
raamatusse
ratastooli
vanematest
kaunistatud
raamatupood
stabiilselt
tagantjärgi
olemasolevat
sissetulekud
valmisolekut
meelelahutust
##geo
"]
Dy
##chte
##gari
##hara
##inos
##kine
##ndur
##vaik
Out
Ped
bor
car
fai
sov
õel
##blogi
##näide
##sorti
##stise
obla
supe
sööd
##eeriti
##erisin
##rajale
Marta
anekd
polik
püksi
sõlme
äärel
##häireid
##jooksul
##olukord
Lenini
juurte
koolil
laetud
teatav
##.06.2011
##lisusele
##põhiselt
##talituse
##ühendust
Samsung
Wilhelm
edestas
kataloo
keraami
kontine
lillede
mängime
peatüki
piparmü
soodsad
ühelegi
##lleitnant
avalikes
fassaadi
katusele
konditsi
käivitus
laulavad
levitada
natsiona
suvalise
sõnadest
süüdista
ärimehed
ümberehi
Schengeni
ametlikud
eeloleval
garantiid
kaitsmine
kiiremaks
küpsetada
lepingust
marginaal
platvormi
põhjaosas
riiklikus
õpilasele
kompromiss
kriteerium
pöördumine
soodustusi
juhtimiseks
tagastamise
eesmärkidest
likvideerida
majanduslike
motiveeritud
maksukohustus
sisseehitatud
liiklusõnnetus
psühholoogiline
##hui
##ohv
##phy
Ji
Tw
##jões
##nesi
##nska
##taju
32.
Int
Mos
Wto
egi
##taani
1800
Ahti
Asta
Cent
hoki
jääk
tara
uksi
##dustöö
##laevad
##rootsi
##tatuna
Einar
Husse
herne
kotid
nippe
parts
perre
rajas
saapa
ärkab
õpiku
##meelest
##ootjate
häiris
külmad
laskes
libera
paluks
pisara
pöialt
saared
täpsus
##.07.2011
##näitusel
aegunud
avatuks
juurdee
kohtute
kruiisi
lõppema
mahukas
marinaa
omadest
osavõtt
pangast
piirdub
porgand
suundub
võidule
võimsam
ülekand
##omanikele
American
arenguga
eemaldab
endisest
koefitsi
kuulsust
ressurss
riputada
siinsete
##inatsiooni
Helsingin
helikopte
kangelane
liigutusi
liitlaste
madalamad
politseis
sajandeid
soovitust
suuremast
tegelesid
tutvustav
vaidlused
viiendiku
aktiivsust
allikatest
avaldamise
dekoratiiv
kohaloleku
tegelemine
teostamise
vähendades
arvestamata
eesistumise
karikasarja
väljapressi
võimalusega
ühiskonnast
ettevalmistu
kehtestamist
kommunistide
enampakkumise
töötervishoiu
üliõpilastele
##lly
##ater
##heri
##inil
##raba
##tsud
Ark
Bay
Hin
Men
Mid
Wer
##eläht
##faasi
##liike
##roosi
Eino
Milo
Mood
Müür
Stal
röst
view
##inõude
##raalse
Adams
Edela
Kaire
Lätti
Opera
Satur
aland
inkas
[...]
